{
  "version": "1.0",
  "truncation": null,
  "padding": null,
  "added_tokens": [
    {
      "id": 0,
      "content": "<pad>",
      "single_word": false,
      "lstrip": false,
      "rstrip": false,
      "normalized": false,
      "special": true
    },
    {
      "id": 1,
      "content": "<unk>",
      "single_word": false,
      "lstrip": false,
      "rstrip": false,
      "normalized": false,
      "special": true
    },
    {
      "id": 2,
      "content": "<bos>",
      "single_word": false,
      "lstrip": false,
      "rstrip": false,
      "normalized": false,
      "special": true
    },
    {
      "id": 3,
      "content": "<eos>",
      "single_word": false,
      "lstrip": false,
      "rstrip": false,
      "normalized": false,
      "special": true
    }
  ],
  "normalizer": {
    "type": "Strip",
    "strip_left": true,
    "strip_right": true
  },
  "pre_tokenizer": {
    "type": "Split",
    "pattern": {
      "String": "\\\\[a-zA-Z]+|\\\\.|\\d|[a-zA-Z]|[^\\s]"
    },
    "behavior": "Isolated",
    "invert": false
  },
  "post_processor": {
    "type": "TemplateProcessing",
    "single": [
      {
        "SpecialToken": {
          "id": "<bos>",
          "type_id": 0
        }
      },
      {
        "Sequence": {
          "id": "A",
          "type_id": 0
        }
      },
      {
        "SpecialToken": {
          "id": "<eos>",
          "type_id": 0
        }
      }
    ],
    "pair": [
      {
        "Sequence": {
          "id": "A",
          "type_id": 0
        }
      },
      {
        "Sequence": {
          "id": "B",
          "type_id": 1
        }
      }
    ],
    "special_tokens": {
      "<bos>": {
        "id": "<bos>",
        "ids": [
          2
        ],
        "tokens": [
          "<bos>"
        ]
      },
      "<eos>": {
        "id": "<eos>",
        "ids": [
          3
        ],
        "tokens": [
          "<eos>"
        ]
      }
    }
  },
  "decoder": {
    "type": "Sequence",
    "decoders": [
      {
        "type": "BPEDecoder",
        "suffix": ""
      },
      {
        "type": "Strip",
        "content": " ",
        "start": 0,
        "stop": 0
      }
    ]
  },
  "model": {
    "type": "BPE",
    "dropout": null,
    "unk_token": "<unk>",
    "continuing_subword_prefix": null,
    "end_of_word_suffix": "",
    "fuse_unk": false,
    "byte_fallback": false,
    "ignore_merges": false,
    "vocab": {
      "<pad>": 0,
      "<unk>": 1,
      "<bos>": 2,
      "<eos>": 3,
      " ": 4,
      "!": 5,
      "\"": 6,
      "#": 7,
      "$": 8,
      "%": 9,
      "&": 10,
      "'": 11,
      "(": 12,
      ")": 13,
      "*": 14,
      "+": 15,
      ",": 16,
      "-": 17,
      ".": 18,
      "/": 19,
      "0": 20,
      "1": 21,
      "2": 22,
      "3": 23,
      "4": 24,
      "5": 25,
      "6": 26,
      "7": 27,
      "8": 28,
      "9": 29,
      ":": 30,
      ";": 31,
      "<": 32,
      "=": 33,
      ">": 34,
      "?": 35,
      "@": 36,
      "A": 37,
      "B": 38,
      "C": 39,
      "D": 40,
      "E": 41,
      "F": 42,
      "G": 43,
      "H": 44,
      "I": 45,
      "J": 46,
      "K": 47,
      "L": 48,
      "M": 49,
      "N": 50,
      "O": 51,
      "P": 52,
      "Q": 53,
      "R": 54,
      "S": 55,
      "T": 56,
      "U": 57,
      "V": 58,
      "W": 59,
      "X": 60,
      "Y": 61,
      "Z": 62,
      "[": 63,
      "\\": 64,
      "]": 65,
      "^": 66,
      "_": 67,
      "`": 68,
      "a": 69,
      "b": 70,
      "c": 71,
      "d": 72,
      "e": 73,
      "f": 74,
      "g": 75,
      "h": 76,
      "i": 77,
      "j": 78,
      "k": 79,
      "l": 80,
      "m": 81,
      "n": 82,
      "o": 83,
      "p": 84,
      "q": 85,
      "r": 86,
      "s": 87,
      "t": 88,
      "u": 89,
      "v": 90,
      "w": 91,
      "x": 92,
      "y": 93,
      "z": 94,
      "{": 95,
      "|": 96,
      "}": 97,
      "~": 98,
      "": 99,
      "": 100,
      "¡": 101,
      "¢": 102,
      "£": 103,
      "¦": 104,
      "§": 105,
      "¨": 106,
      "©": 107,
      "ª": 108,
      "«": 109,
      "¬": 110,
      "®": 111,
      "¯": 112,
      "°": 113,
      "²": 114,
      "³": 115,
      "´": 116,
      "µ": 117,
      "¶": 118,
      "¸": 119,
      "¹": 120,
      "º": 121,
      "»": 122,
      "¼": 123,
      "½": 124,
      "¾": 125,
      "¿": 126,
      "À": 127,
      "Á": 128,
      "Â": 129,
      "Ã": 130,
      "Ä": 131,
      "Å": 132,
      "Æ": 133,
      "Ç": 134,
      "È": 135,
      "É": 136,
      "Ê": 137,
      "Ë": 138,
      "Ì": 139,
      "Í": 140,
      "Î": 141,
      "Ï": 142,
      "Ð": 143,
      "Ñ": 144,
      "Ò": 145,
      "Ó": 146,
      "Ô": 147,
      "Õ": 148,
      "Ö": 149,
      "Ø": 150,
      "Ù": 151,
      "Ú": 152,
      "Û": 153,
      "Ü": 154,
      "Ý": 155,
      "Þ": 156,
      "ß": 157,
      "à": 158,
      "á": 159,
      "â": 160,
      "ã": 161,
      "ä": 162,
      "å": 163,
      "æ": 164,
      "ç": 165,
      "è": 166,
      "é": 167,
      "ê": 168,
      "ë": 169,
      "ì": 170,
      "í": 171,
      "î": 172,
      "ï": 173,
      "ð": 174,
      "ñ": 175,
      "ò": 176,
      "ó": 177,
      "ô": 178,
      "õ": 179,
      "ö": 180,
      "ù": 181,
      "û": 182,
      "ü": 183,
      "ý": 184,
      "Ā": 185,
      "ā": 186,
      "Ĉ": 187,
      "ĉ": 188,
      "Ċ": 189,
      "ċ": 190,
      "Ď": 191,
      "ď": 192,
      "Đ": 193,
      "đ": 194,
      "Ē": 195,
      "ē": 196,
      "Ė": 197,
      "Ĝ": 198,
      "ĝ": 199,
      "ġ": 200,
      "Ĥ": 201,
      "ĥ": 202,
      "Ħ": 203,
      "ħ": 204,
      "Ĩ": 205,
      "ĩ": 206,
      "Ī": 207,
      "ī": 208,
      "ĭ": 209,
      "į": 210,
      "ı": 211,
      "ĳ": 212,
      "Ĵ": 213,
      "ĵ": 214,
      "ķ": 215,
      "ĸ": 216,
      "Ĺ": 217,
      "ń": 218,
      "ņ": 219,
      "Ň": 220,
      "ň": 221,
      "ŋ": 222,
      "Ō": 223,
      "ō": 224,
      "œ": 225,
      "ŗ": 226,
      "Ŝ": 227,
      "ŝ": 228,
      "š": 229,
      "Ť": 230,
      "Ŧ": 231,
      "Ũ": 232,
      "ũ": 233,
      "Ū": 234,
      "ū": 235,
      "ŵ": 236,
      "ŷ": 237,
      "ź": 238,
      "ż": 239,
      "Ɗ": 240,
      "ƍ": 241,
      "ƒ": 242,
      "ƙ": 243,
      "ƛ": 244,
      "Ɵ": 245,
      "Ƥ": 246,
      "ƥ": 247,
      "Ƨ": 248,
      "Ʃ": 249,
      "ƪ": 250,
      "Ƭ": 251,
      "ƭ": 252,
      "Ư": 253,
      "Ʊ": 254,
      "ǀ": 255,
      "ǁ": 256,
      "ǂ": 257,
      "Ǆ": 258,
      "ǉ": 259,
      "Ǎ": 260,
      "Ǐ": 261,
      "ǐ": 262,
      "ǝ": 263,
      "Ǫ": 264,
      "ǫ": 265,
      "Ǭ": 266,
      "ǹ": 267,
      "ǻ": 268,
      "ȁ": 269,
      "ȃ": 270,
      "Ȋ": 271,
      "ȍ": 272,
      "Ș": 273,
      "ȝ": 274,
      "Ȥ": 275,
      "Ȧ": 276,
      "ȧ": 277,
      "Ȯ": 278,
      "Ȳ": 279,
      "ȳ": 280,
      "ȶ": 281,
      "ȷ": 282,
      "ȸ": 283,
      "Ȼ": 284,
      "Ⱦ": 285,
      "Ʌ": 286,
      "ɐ": 287,
      "ɑ": 288,
      "ɒ": 289,
      "ɔ": 290,
      "ə": 291,
      "ɛ": 292,
      "ɡ": 293,
      "ɢ": 294,
      "ɣ": 295,
      "ɨ": 296,
      "ɪ": 297,
      "ɳ": 298,
      "ɴ": 299,
      "ɸ": 300,
      "ɹ": 301,
      "ɾ": 302,
      "ɿ": 303,
      "ʀ": 304,
      "ʃ": 305,
      "ʒ": 306,
      "ʗ": 307,
      "ʘ": 308,
      "ʙ": 309,
      "ʜ": 310,
      "ʝ": 311,
      "ʟ": 312,
      "ʰ": 313,
      "ʱ": 314,
      "ʲ": 315,
      "ʳ": 316,
      "ʷ": 317,
      "ʸ": 318,
      "ʹ": 319,
      "ʺ": 320,
      "ʼ": 321,
      "ˀ": 322,
      "˂": 323,
      "˄": 324,
      "ˆ": 325,
      "ˇ": 326,
      "ˈ": 327,
      "ˉ": 328,
      "ˊ": 329,
      "ˋ": 330,
      "ˌ": 331,
      "ˍ": 332,
      "ː": 333,
      "˔": 334,
      "˗": 335,
      "˘": 336,
      "˙": 337,
      "˚": 338,
      "˜": 339,
      "˝": 340,
      "˟": 341,
      "ˠ": 342,
      "ˡ": 343,
      "ˢ": 344,
      "ˣ": 345,
      "ˮ": 346,
      "˳": 347,
      "̀": 348,
      "́": 349,
      "̂": 350,
      "̃": 351,
      "̄": 352,
      "̅": 353,
      "̆": 354,
      "̇": 355,
      "̊": 356,
      "̌": 357,
      "̍": 358,
      "̑": 359,
      "̞": 360,
      "̣": 361,
      "̥": 362,
      "̧": 363,
      "̯": 364,
      "̲": 365,
      "̳": 366,
      "̵": 367,
      "̶": 368,
      "̷": 369,
      "̸": 370,
      "̺": 371,
      "̿": 372,
      "͑": 373,
      "͙": 374,
      "͜": 375,
      "ͯ": 376,
      "Ͳ": 377,
      "Ή": 378,
      "Ι": 379,
      "Κ": 380,
      "Ν": 381,
      "Ο": 382,
      "Ρ": 383,
      "ά": 384,
      "έ": 385,
      "ή": 386,
      "ί": 387,
      "ο": 388,
      "ς": 389,
      "ό": 390,
      "ύ": 391,
      "ώ": 392,
      "ϑ": 393,
      "ϒ": 394,
      "ϕ": 395,
      "ϖ": 396,
      "Ϝ": 397,
      "ϝ": 398,
      "ϰ": 399,
      "ϱ": 400,
      "ϴ": 401,
      "ϵ": 402,
      "Ё": 403,
      "Ѓ": 404,
      "Є": 405,
      "Ї": 406,
      "Ј": 407,
      "Ћ": 408,
      "Ќ": 409,
      "В": 410,
      "Д": 411,
      "Е": 412,
      "К": 413,
      "О": 414,
      "С": 415,
      "Т": 416,
      "а": 417,
      "в": 418,
      "г": 419,
      "д": 420,
      "е": 421,
      "ж": 422,
      "и": 423,
      "к": 424,
      "л": 425,
      "м": 426,
      "о": 427,
      "п": 428,
      "р": 429,
      "с": 430,
      "т": 431,
      "у": 432,
      "х": 433,
      "ц": 434,
      "я": 435,
      "ё": 436,
      "ѓ": 437,
      "є": 438,
      "і": 439,
      "ї": 440,
      "ј": 441,
      "ћ": 442,
      "џ": 443,
      "ѣ": 444,
      "ѩ": 445,
      "ѫ": 446,
      "ѭ": 447,
      "Ѯ": 448,
      "Ѱ": 449,
      "҂": 450,
      "҉": 451,
      "ӄ": 452,
      "Ӿ": 453,
      "Ԍ": 454,
      "Ա": 455,
      "Բ": 456,
      "ի": 457,
      "ց": 458,
      "א": 459,
      "ח": 460,
      "إ": 461,
      "ج": 462,
      "ح": 463,
      "خ": 464,
      "ܶ": 465,
      "݀": 466,
      "݇": 467,
      "ߎ": 468,
      "੭": 469,
      "൘": 470,
      "რ": 471,
      "ን": 472,
      "ኖ": 473,
      "Ꭰ": 474,
      "Ꭾ": 475,
      "Ꮯ": 476,
      "Ᏹ": 477,
      "ᐁ": 478,
      "ᐅ": 479,
      "ᐉ": 480,
      "ᐝ": 481,
      "ᐞ": 482,
      "ᐠ": 483,
      "ᐢ": 484,
      "ᐧ": 485,
      "ᐩ": 486,
      "ᐱ": 487,
      "ដ": 488,
      "ᴀ": 489,
      "ᴄ": 490,
      "ᴅ": 491,
      "ᴇ": 492,
      "ᴊ": 493,
      "ᴍ": 494,
      "ᴏ": 495,
      "ᴘ": 496,
      "ᴛ": 497,
      "ᴜ": 498,
      "ᴠ": 499,
      "ᴡ": 500,
      "ᴢ": 501,
      "ᴦ": 502,
      "ᴨ": 503,
      "ᴩ": 504,
      "ᴪ": 505,
      "ᴫ": 506,
      "ᴬ": 507,
      "ᴮ": 508,
      "ᴰ": 509,
      "ᴱ": 510,
      "ᴳ": 511,
      "ᴴ": 512,
      "ᴵ": 513,
      "ᴶ": 514,
      "ᴷ": 515,
      "ᴸ": 516,
      "ᴹ": 517,
      "ᴺ": 518,
      "ᴼ": 519,
      "ᴾ": 520,
      "ᴿ": 521,
      "ᵀ": 522,
      "ᵁ": 523,
      "ᵂ": 524,
      "ᵃ": 525,
      "ᵅ": 526,
      "ᵆ": 527,
      "ᵇ": 528,
      "ᵈ": 529,
      "ᵉ": 530,
      "ᵊ": 531,
      "ᵍ": 532,
      "ᵎ": 533,
      "ᵏ": 534,
      "ᵐ": 535,
      "ᵑ": 536,
      "ᵒ": 537,
      "ᵕ": 538,
      "ᵖ": 539,
      "ᵗ": 540,
      "ᵘ": 541,
      "ᵚ": 542,
      "ᵛ": 543,
      "ᵝ": 544,
      "ᵞ": 545,
      "ᵟ": 546,
      "ᵠ": 547,
      "ᵡ": 548,
      "ᵢ": 549,
      "ᵣ": 550,
      "ᵤ": 551,
      "ᵥ": 552,
      "ᵦ": 553,
      "ᵧ": 554,
      "ᵨ": 555,
      "ᵩ": 556,
      "ᵪ": 557,
      "ᵹ": 558,
      "ᵾ": 559,
      "ᶇ": 560,
      "ᶘ": 561,
      "ᶜ": 562,
      "ᶟ": 563,
      "ᶠ": 564,
      "ᶥ": 565,
      "ᶦ": 566,
      "ᶲ": 567,
      "ᶻ": 568,
      "ᶿ": 569,
      "Ḁ": 570,
      "ḃ": 571,
      "Ḋ": 572,
      "ḋ": 573,
      "ḍ": 574,
      "Ḏ": 575,
      "ḏ": 576,
      "Ḑ": 577,
      "ḟ": 578,
      "Ḡ": 579,
      "ḡ": 580,
      "Ḣ": 581,
      "ḣ": 582,
      "Ḥ": 583,
      "ḥ": 584,
      "Ḧ": 585,
      "ḧ": 586,
      "ḩ": 587,
      "Ḳ": 588,
      "ḹ": 589,
      "ḿ": 590,
      "ṁ": 591,
      "Ṅ": 592,
      "ṅ": 593,
      "ṑ": 594,
      "Ṕ": 595,
      "ṕ": 596,
      "ṗ": 597,
      "Ṙ": 598,
      "ṙ": 599,
      "Ṝ": 600,
      "ṝ": 601,
      "Ṡ": 602,
      "ṡ": 603,
      "Ṣ": 604,
      "ṣ": 605,
      "ṩ": 606,
      "Ṫ": 607,
      "ṭ": 608,
      "ṯ": 609,
      "Ṽ": 610,
      "ṽ": 611,
      "ẅ": 612,
      "ẇ": 613,
      "Ẋ": 614,
      "ẋ": 615,
      "ẍ": 616,
      "Ẏ": 617,
      "ẏ": 618,
      "Ẑ": 619,
      "ẑ": 620,
      "ẗ": 621,
      "ẚ": 622,
      "ẝ": 623,
      "ẞ": 624,
      "ạ": 625,
      "ả": 626,
      "Ấ": 627,
      "Ầ": 628,
      "ẹ": 629,
      "Ẽ": 630,
      "ẽ": 631,
      "Ị": 632,
      "ị": 633,
      "ụ": 634,
      "ỳ": 635,
      "Ỷ": 636,
      "ỹ": 637,
      "ἐ": 638,
      "ἒ": 639,
      "ὲ": 640,
      "ᾱ": 641,
      "ᾶ": 642,
      "Ά": 643,
      "ᾼ": 644,
      "ῡ": 645,
      "ῦ": 646,
      "ῲ": 647,
      "ῳ": 648,
      "ῷ": 649,
      "Ὸ": 650,
      "ῼ": 651,
      "´": 652,
      "῾": 653,
      "῿": 654,
      "​": 655,
      "‌": 656,
      "‎": 657,
      "‐": 658,
      "–": 659,
      "—": 660,
      "‖": 661,
      "‘": 662,
      "’": 663,
      "‚": 664,
      "“": 665,
      "”": 666,
      "„": 667,
      "†": 668,
      "‡": 669,
      "•": 670,
      "…": 671,
      "‱": 672,
      "′": 673,
      "″": 674,
      "‴": 675,
      "‵": 676,
      "‸": 677,
      "‹": 678,
      "›": 679,
      "‼": 680,
      "‾": 681,
      "‿": 682,
      "⁄": 683,
      "⁅": 684,
      "⁆": 685,
      "⁎": 686,
      "⁡": 687,
      "⁢": 688,
      "⁣": 689,
      "⁰": 690,
      "ⁱ": 691,
      "⁴": 692,
      "⁵": 693,
      "⁶": 694,
      "⁷": 695,
      "⁸": 696,
      "⁹": 697,
      "⁺": 698,
      "⁻": 699,
      "⁼": 700,
      "⁽": 701,
      "⁾": 702,
      "ⁿ": 703,
      "₀": 704,
      "₁": 705,
      "₂": 706,
      "₃": 707,
      "₄": 708,
      "₅": 709,
      "₆": 710,
      "₇": 711,
      "₈": 712,
      "₉": 713,
      "₊": 714,
      "₋": 715,
      "₌": 716,
      "₍": 717,
      "₎": 718,
      "ₐ": 719,
      "ₑ": 720,
      "ₒ": 721,
      "ₓ": 722,
      "ₔ": 723,
      "ₕ": 724,
      "ₖ": 725,
      "ₗ": 726,
      "ₘ": 727,
      "ₙ": 728,
      "ₚ": 729,
      "ₛ": 730,
      "ₜ": 731,
      "€": 732,
      "₶": 733,
      "⃑": 734,
      "⃒": 735,
      "⃗": 736,
      "⃛": 737,
      "⃣": 738,
      "ℂ": 739,
      "ℊ": 740,
      "ℋ": 741,
      "ℌ": 742,
      "ℍ": 743,
      "ℎ": 744,
      "ℏ": 745,
      "ℐ": 746,
      "ℑ": 747,
      "ℒ": 748,
      "ℓ": 749,
      "ℕ": 750,
      "℘": 751,
      "ℙ": 752,
      "ℚ": 753,
      "ℛ": 754,
      "ℜ": 755,
      "ℝ": 756,
      "ℤ": 757,
      "Ω": 758,
      "ℨ": 759,
      "ℬ": 760,
      "ℭ": 761,
      "℮": 762,
      "ℯ": 763,
      "ℰ": 764,
      "ℱ": 765,
      "ℳ": 766,
      "ℴ": 767,
      "ℵ": 768,
      "ℶ": 769,
      "ℷ": 770,
      "ℸ": 771,
      "ℹ": 772,
      "℺": 773,
      "℻": 774,
      "ℼ": 775,
      "ℽ": 776,
      "ℾ": 777,
      "ℿ": 778,
      "ⅅ": 779,
      "ⅆ": 780,
      "ⅇ": 781,
      "ⅈ": 782,
      "ⅉ": 783,
      "⅓": 784,
      "⅔": 785,
      "⅖": 786,
      "⅘": 787,
      "⅙": 788,
      "⅛": 789,
      "⅜": 790,
      "⅟": 791,
      "Ⅰ": 792,
      "ⅰ": 793,
      "ⅿ": 794,
      "←": 795,
      "↑": 796,
      "↓": 797,
      "↗": 798,
      "↘": 799,
      "↙": 800,
      "↛": 801,
      "↝": 802,
      "↠": 803,
      "↦": 804,
      "↪": 805,
      "↼": 806,
      "↾": 807,
      "⇀": 808,
      "⇄": 809,
      "⇌": 810,
      "⇐": 811,
      "⇝": 812,
      "∀": 813,
      "∁": 814,
      "∃": 815,
      "∄": 816,
      "∆": 817,
      "∊": 818,
      "∋": 819,
      "∐": 820,
      "−": 821,
      "∓": 822,
      "∕": 823,
      "∖": 824,
      "∗": 825,
      "∘": 826,
      "∙": 827,
      "√": 828,
      "∛": 829,
      "∜": 830,
      "∝": 831,
      "∠": 832,
      "∣": 833,
      "∤": 834,
      "∥": 835,
      "∧": 836,
      "∨": 837,
      "∬": 838,
      "∭": 839,
      "∮": 840,
      "∴": 841,
      "∵": 842,
      "∶": 843,
      "∷": 844,
      "∼": 845,
      "≃": 846,
      "≅": 847,
      "≍": 848,
      "≐": 849,
      "≔": 850,
      "≜": 851,
      "≝": 852,
      "≡": 853,
      "≢": 854,
      "≦": 855,
      "≧": 856,
      "≪": 857,
      "≫": 858,
      "≮": 859,
      "≲": 860,
      "≳": 861,
      "≺": 862,
      "≻": 863,
      "≼": 864,
      "≾": 865,
      "≿": 866,
      "⊀": 867,
      "⊆": 868,
      "⊇": 869,
      "⊈": 870,
      "⊊": 871,
      "⊎": 872,
      "⊑": 873,
      "⊓": 874,
      "⊔": 875,
      "⊕": 876,
      "⊖": 877,
      "⊗": 878,
      "⊘": 879,
      "⊙": 880,
      "⊛": 881,
      "⊝": 882,
      "⊞": 883,
      "⊠": 884,
      "⊢": 885,
      "⊣": 886,
      "⊤": 887,
      "⊥": 888,
      "⊨": 889,
      "⊩": 890,
      "⊲": 891,
      "⊳": 892,
      "⊴": 893,
      "⊺": 894,
      "⊿": 895,
      "⋀": 896,
      "⋁": 897,
      "⋂": 898,
      "⋃": 899,
      "⋄": 900,
      "⋅": 901,
      "⋆": 902,
      "⋈": 903,
      "⋉": 904,
      "⋊": 905,
      "⋏": 906,
      "⋒": 907,
      "⋖": 908,
      "⋗": 909,
      "⋙": 910,
      "⋮": 911,
      "⋯": 912,
      "⋱": 913,
      "⌈": 914,
      "⌉": 915,
      "⌊": 916,
      "⌋": 917,
      "⌐": 918,
      "⌛": 919,
      "⌢": 920,
      "⌣": 921,
      "〈": 922,
      "〉": 923,
      "⍴": 924,
      "⎛": 925,
      "⎜": 926,
      "⎝": 927,
      "⎞": 928,
      "⎟": 929,
      "⎠": 930,
      "⎡": 931,
      "⎢": 932,
      "⎣": 933,
      "⎤": 934,
      "⎥": 935,
      "⎦": 936,
      "⎧": 937,
      "⎨": 938,
      "⎩": 939,
      "⎪": 940,
      "⎫": 941,
      "⎬": 942,
      "⎭": 943,
      "⎮": 944,
      "⎰": 945,
      "⎷": 946,
      "⏋": 947,
      "⏎": 948,
      "⏑": 949,
      "⏜": 950,
      "⏞": 951,
      "⏟": 952,
      "␣": 953,
      "␳": 954,
      "ⓘ": 955,
      "ⓧ": 956,
      "│": 957,
      "┌": 958,
      "┬": 959,
      "┴": 960,
      "╱": 961,
      "╲": 962,
      "▒": 963,
      "■": 964,
      "□": 965,
      "△": 966,
      "▷": 967,
      "▹": 968,
      "▽": 969,
      "▿": 970,
      "◁": 971,
      "◃": 972,
      "◅": 973,
      "◇": 974,
      "◊": 975,
      "○": 976,
      "◌": 977,
      "◡": 978,
      "◦": 979,
      "◯": 980,
      "◻": 981,
      "★": 982,
      "☉": 983,
      "♥": 984,
      "♭": 985,
      "♮": 986,
      "♯": 987,
      "✻": 988,
      "⟂": 989,
      "⟘": 990,
      "⟦": 991,
      "⟧": 992,
      "⟨": 993,
      "⟩": 994,
      "⟵": 995,
      "⟶": 996,
      "⟷": 997,
      "⟹": 998,
      "⟺": 999,
      "⟼": 1000,
      "⤏": 1001,
      "⥮": 1002,
      "⦵": 1003,
      "⧵": 1004,
      "⧸": 1005,
      "⨀": 1006,
      "⨁": 1007,
      "⨂": 1008,
      "⨄": 1009,
      "⨆": 1010,
      "⨜": 1011,
      "⨯": 1012,
      "⩽": 1013,
      "⩾": 1014,
      "⪅": 1015,
      "⪰": 1016,
      "⫋": 1017,
      "⫫": 1018,
      "⬇": 1019,
      "⬚": 1020,
      "⬜": 1021,
      "ⱍ": 1022,
      "Ⱡ": 1023,
      "Ɫ": 1024,
      "Ᵽ": 1025,
      "ⱦ": 1026,
      "Ⱬ": 1027,
      "ⱬ": 1028,
      "Ɑ": 1029,
      "Ɱ": 1030,
      "Ɐ": 1031,
      "ⱳ": 1032,
      "ⱴ": 1033,
      "ⱶ": 1034,
      "ⱷ": 1035,
      "ⱸ": 1036,
      "ⱼ": 1037,
      "ⱽ": 1038,
      "ⵜ": 1039,
      "⸍": 1040,
      "⸱": 1041,
      "、": 1042,
      "。": 1043,
      "〈": 1044,
      "〉": 1045,
      "〖": 1046,
      "〗": 1047,
      "〚": 1048,
      "〛": 1049,
      "〜": 1050,
      "あ": 1051,
      "い": 1052,
      "え": 1053,
      "か": 1054,
      "が": 1055,
      "き": 1056,
      "く": 1057,
      "こ": 1058,
      "さ": 1059,
      "し": 1060,
      "す": 1061,
      "そ": 1062,
      "ぞ": 1063,
      "た": 1064,
      "つ": 1065,
      "て": 1066,
      "で": 1067,
      "と": 1068,
      "ど": 1069,
      "な": 1070,
      "に": 1071,
      "の": 1072,
      "は": 1073,
      "ば": 1074,
      "ほ": 1075,
      "ま": 1076,
      "ゆ": 1077,
      "よ": 1078,
      "ら": 1079,
      "り": 1080,
      "る": 1081,
      "れ": 1082,
      "ろ": 1083,
      "を": 1084,
      "ん": 1085,
      "ガ": 1086,
      "マ": 1087,
      "ン": 1088,
      "㔶": 1089,
      "䓘": 1090,
      "一": 1091,
      "三": 1092,
      "上": 1093,
      "下": 1094,
      "不": 1095,
      "与": 1096,
      "且": 1097,
      "丙": 1098,
      "両": 1099,
      "个": 1100,
      "中": 1101,
      "为": 1102,
      "乗": 1103,
      "乙": 1104,
      "九": 1105,
      "了": 1106,
      "二": 1107,
      "于": 1108,
      "产": 1109,
      "京": 1110,
      "亮": 1111,
      "人": 1112,
      "从": 1113,
      "他": 1114,
      "代": 1115,
      "以": 1116,
      "们": 1117,
      "价": 1118,
      "任": 1119,
      "位": 1120,
      "余": 1121,
      "作": 1122,
      "係": 1123,
      "倍": 1124,
      "值": 1125,
      "偏": 1126,
      "偶": 1127,
      "元": 1128,
      "党": 1129,
      "入": 1130,
      "公": 1131,
      "其": 1132,
      "写": 1133,
      "况": 1134,
      "函": 1135,
      "分": 1136,
      "利": 1137,
      "到": 1138,
      "力": 1139,
      "加": 1140,
      "务": 1141,
      "动": 1142,
      "十": 1143,
      "即": 1144,
      "原": 1145,
      "参": 1146,
      "及": 1147,
      "发": 1148,
      "变": 1149,
      "叠": 1150,
      "另": 1151,
      "可": 1152,
      "右": 1153,
      "合": 1154,
      "周": 1155,
      "和": 1156,
      "品": 1157,
      "因": 1158,
      "固": 1159,
      "在": 1160,
      "地": 1161,
      "块": 1162,
      "复": 1163,
      "大": 1164,
      "天": 1165,
      "太": 1166,
      "奇": 1167,
      "如": 1168,
      "妈": 1169,
      "始": 1170,
      "子": 1171,
      "存": 1172,
      "学": 1173,
      "定": 1174,
      "对": 1175,
      "対": 1176,
      "将": 1177,
      "小": 1178,
      "岁": 1179,
      "左": 1180,
      "帰": 1181,
      "常": 1182,
      "年": 1183,
      "并": 1184,
      "幺": 1185,
      "应": 1186,
      "开": 1187,
      "式": 1188,
      "得": 1189,
      "微": 1190,
      "态": 1191,
      "情": 1192,
      "意": 1193,
      "成": 1194,
      "我": 1195,
      "或": 1196,
      "所": 1197,
      "把": 1198,
      "挤": 1199,
      "描": 1200,
      "操": 1201,
      "改": 1202,
      "政": 1203,
      "数": 1204,
      "整": 1205,
      "文": 1206,
      "方": 1207,
      "旅": 1208,
      "旋": 1209,
      "日": 1210,
      "时": 1211,
      "明": 1212,
      "是": 1213,
      "書": 1214,
      "月": 1215,
      "有": 1216,
      "服": 1217,
      "期": 1218,
      "本": 1219,
      "果": 1220,
      "格": 1221,
      "次": 1222,
      "正": 1223,
      "母": 1224,
      "求": 1225,
      "法": 1226,
      "注": 1227,
      "游": 1228,
      "満": 1229,
      "满": 1230,
      "為": 1231,
      "然": 1232,
      "特": 1233,
      "状": 1234,
      "理": 1235,
      "用": 1236,
      "甲": 1237,
      "电": 1238,
      "的": 1239,
      "盾": 1240,
      "矛": 1241,
      "矩": 1242,
      "研": 1243,
      "示": 1244,
      "种": 1245,
      "积": 1246,
      "移": 1247,
      "究": 1248,
      "空": 1249,
      "立": 1250,
      "第": 1251,
      "等": 1252,
      "答": 1253,
      "粒": 1254,
      "納": 1255,
      "累": 1256,
      "组": 1257,
      "经": 1258,
      "维": 1259,
      "置": 1260,
      "義": 1261,
      "者": 1262,
      "能": 1263,
      "自": 1264,
      "良": 1265,
      "色": 1266,
      "行": 1267,
      "表": 1268,
      "袋": 1269,
      "補": 1270,
      "见": 1271,
      "角": 1272,
      "解": 1273,
      "証": 1274,
      "説": 1275,
      "该": 1276,
      "误": 1277,
      "负": 1278,
      "足": 1279,
      "路": 1280,
      "转": 1281,
      "辺": 1282,
      "达": 1283,
      "运": 1284,
      "这": 1285,
      "述": 1286,
      "逆": 1287,
      "部": 1288,
      "都": 1289,
      "重": 1290,
      "量": 1291,
      "間": 1292,
      "関": 1293,
      "阵": 1294,
      "限": 1295,
      "面": 1296,
      "页": 1297,
      "项": 1298,
      "ꜛ": 1299,
      "ꜰ": 1300,
      "ꜱ": 1301,
      "Ꝋ": 1302,
      "ꝏ": 1303,
      "ꝑ": 1304,
      "꞉": 1305,
      "꧂": 1306,
      "거": 1307,
      "나": 1308,
      "디": 1309,
      "뷰": 1310,
      "서": 1311,
      "어": 1312,
      "에": 1313,
      "의": 1314,
      "푘": 1315,
      "": 1316,
      "": 1317,
      "": 1318,
      "": 1319,
      "": 1320,
      "": 1321,
      "": 1322,
      "": 1323,
      "": 1324,
      "": 1325,
      "": 1326,
      "": 1327,
      "": 1328,
      "": 1329,
      "": 1330,
      "": 1331,
      "": 1332,
      "": 1333,
      "": 1334,
      "": 1335,
      "": 1336,
      "": 1337,
      "": 1338,
      "﴾": 1339,
      "︀": 1340,
      "︁": 1341,
      "︂": 1342,
      "️": 1343,
      "︷": 1344,
      "︸": 1345,
      "﹐": 1346,
      "ﺄ": 1347,
      "ﻬ": 1348,
      "（": 1349,
      "）": 1350,
      "，": 1351,
      "－": 1352,
      "．": 1353,
      "：": 1354,
      "；": 1355,
      "＜": 1356,
      "＝": 1357,
      "＞": 1358,
      "Ｒ": 1359,
      "＼": 1360,
      "ｈ": 1361,
      "ｊ": 1362,
      "｛": 1363,
      "｝": 1364,
      "～": 1365,
      "�": 1366,
      "𒈥": 1367,
      "𝄩": 1368,
      "𝐀": 1369,
      "𝐁": 1370,
      "𝐂": 1371,
      "𝐃": 1372,
      "𝐄": 1373,
      "𝐅": 1374,
      "𝐆": 1375,
      "𝐇": 1376,
      "𝐈": 1377,
      "𝐉": 1378,
      "𝐊": 1379,
      "𝐏": 1380,
      "𝐑": 1381,
      "𝐒": 1382,
      "𝐓": 1383,
      "𝐕": 1384,
      "𝐖": 1385,
      "𝐗": 1386,
      "𝐘": 1387,
      "𝐙": 1388,
      "𝐚": 1389,
      "𝐛": 1390,
      "𝐝": 1391,
      "𝐡": 1392,
      "𝐢": 1393,
      "𝐤": 1394,
      "𝐦": 1395,
      "𝐧": 1396,
      "𝐩": 1397,
      "𝐪": 1398,
      "𝐫": 1399,
      "𝐬": 1400,
      "𝐭": 1401,
      "𝐮": 1402,
      "𝐯": 1403,
      "𝐰": 1404,
      "𝐱": 1405,
      "𝐳": 1406,
      "𝐴": 1407,
      "𝐵": 1408,
      "𝐶": 1409,
      "𝐷": 1410,
      "𝐸": 1411,
      "𝐹": 1412,
      "𝐺": 1413,
      "𝐻": 1414,
      "𝐼": 1415,
      "𝐽": 1416,
      "𝐾": 1417,
      "𝐿": 1418,
      "𝑀": 1419,
      "𝑁": 1420,
      "𝑂": 1421,
      "𝑃": 1422,
      "𝑄": 1423,
      "𝑅": 1424,
      "𝑆": 1425,
      "𝑇": 1426,
      "𝑈": 1427,
      "𝑉": 1428,
      "𝑊": 1429,
      "𝑋": 1430,
      "𝑌": 1431,
      "𝑎": 1432,
      "𝑏": 1433,
      "𝑐": 1434,
      "𝑑": 1435,
      "𝑒": 1436,
      "𝑓": 1437,
      "𝑔": 1438,
      "𝑖": 1439,
      "𝑗": 1440,
      "𝑘": 1441,
      "𝑙": 1442,
      "𝑚": 1443,
      "𝑛": 1444,
      "𝑜": 1445,
      "𝑝": 1446,
      "𝑞": 1447,
      "𝑟": 1448,
      "𝑠": 1449,
      "𝑡": 1450,
      "𝑢": 1451,
      "𝑣": 1452,
      "𝑤": 1453,
      "𝑥": 1454,
      "𝑦": 1455,
      "𝑧": 1456,
      "𝑨": 1457,
      "𝑪": 1458,
      "𝑫": 1459,
      "𝑯": 1460,
      "𝑲": 1461,
      "𝑴": 1462,
      "𝑶": 1463,
      "𝑷": 1464,
      "𝑸": 1465,
      "𝑹": 1466,
      "𝑺": 1467,
      "𝑻": 1468,
      "𝑽": 1469,
      "𝑾": 1470,
      "𝒁": 1471,
      "𝒂": 1472,
      "𝒄": 1473,
      "𝒅": 1474,
      "𝒆": 1475,
      "𝒇": 1476,
      "𝒈": 1477,
      "𝒉": 1478,
      "𝒊": 1479,
      "𝒌": 1480,
      "𝒎": 1481,
      "𝒏": 1482,
      "𝒒": 1483,
      "𝒓": 1484,
      "𝒔": 1485,
      "𝒖": 1486,
      "𝒘": 1487,
      "𝒙": 1488,
      "𝒚": 1489,
      "𝒛": 1490,
      "𝒜": 1491,
      "𝒞": 1492,
      "𝒟": 1493,
      "𝒢": 1494,
      "𝒥": 1495,
      "𝒦": 1496,
      "𝒩": 1497,
      "𝒪": 1498,
      "𝒫": 1499,
      "𝒬": 1500,
      "𝒮": 1501,
      "𝒯": 1502,
      "𝒰": 1503,
      "𝒱": 1504,
      "𝒲": 1505,
      "𝒳": 1506,
      "𝒴": 1507,
      "𝒵": 1508,
      "𝒶": 1509,
      "𝒸": 1510,
      "𝒾": 1511,
      "𝓁": 1512,
      "𝓉": 1513,
      "𝓋": 1514,
      "𝓌": 1515,
      "𝓍": 1516,
      "𝓏": 1517,
      "𝓐": 1518,
      "𝓑": 1519,
      "𝓔": 1520,
      "𝓕": 1521,
      "𝓖": 1522,
      "𝓗": 1523,
      "𝓚": 1524,
      "𝓛": 1525,
      "𝓜": 1526,
      "𝓝": 1527,
      "𝓟": 1528,
      "𝓡": 1529,
      "𝓣": 1530,
      "𝓧": 1531,
      "𝓵": 1532,
      "𝔁": 1533,
      "𝔄": 1534,
      "𝔅": 1535,
      "𝔇": 1536,
      "𝔉": 1537,
      "𝔍": 1538,
      "𝔏": 1539,
      "𝔐": 1540,
      "𝔓": 1541,
      "𝔖": 1542,
      "𝔘": 1543,
      "𝔛": 1544,
      "𝔞": 1545,
      "𝔟": 1546,
      "𝔠": 1547,
      "𝔤": 1548,
      "𝔥": 1549,
      "𝔦": 1550,
      "𝔧": 1551,
      "𝔪": 1552,
      "𝔫": 1553,
      "𝔬": 1554,
      "𝔭": 1555,
      "𝔯": 1556,
      "𝔰": 1557,
      "𝔲": 1558,
      "𝔶": 1559,
      "𝔸": 1560,
      "𝔹": 1561,
      "𝔻": 1562,
      "𝔼": 1563,
      "𝔽": 1564,
      "𝔾": 1565,
      "𝕀": 1566,
      "𝕂": 1567,
      "𝕃": 1568,
      "𝕆": 1569,
      "𝕊": 1570,
      "𝕋": 1571,
      "𝕍": 1572,
      "𝕎": 1573,
      "𝕏": 1574,
      "𝕟": 1575,
      "𝕰": 1576,
      "𝖟": 1577,
      "𝖳": 1578,
      "𝗇": 1579,
      "𝗔": 1580,
      "𝗘": 1581,
      "𝗜": 1582,
      "𝘢": 1583,
      "𝙯": 1584,
      "𝚤": 1585,
      "𝚫": 1586,
      "𝚲": 1587,
      "𝚽": 1588,
      "𝚿": 1589,
      "𝛀": 1590,
      "𝛁": 1591,
      "𝛂": 1592,
      "𝛃": 1593,
      "𝛌": 1594,
      "𝛕": 1595,
      "𝛢": 1596,
      "𝛬": 1597,
      "𝛺": 1598,
      "𝛼": 1599,
      "𝛽": 1600,
      "𝛾": 1601,
      "𝛿": 1602,
      "𝜂": 1603,
      "𝜃": 1604,
      "𝜅": 1605,
      "𝜆": 1606,
      "𝜇": 1607,
      "𝜉": 1608,
      "𝜋": 1609,
      "𝜌": 1610,
      "𝜎": 1611,
      "𝜏": 1612,
      "𝜑": 1613,
      "𝜒": 1614,
      "𝜓": 1615,
      "𝜕": 1616,
      "𝜗": 1617,
      "𝜙": 1618,
      "𝜸": 1619,
      "𝜹": 1620,
      "𝞪": 1621,
      "𝟎": 1622,
      "𝟏": 1623,
      "𝟐": 1624,
      "𝟑": 1625,
      "𝟙": 1626,
      "𝟭": 1627,
      "􀀀": 1628,
      "􏰀": 1629,
      "􏰁": 1630,
      "􏰄": 1631,
      "􏰅": 1632,
      "􏰇": 1633,
      "􏰔": 1634,
      "􏰟": 1635,
      "\\l": 1636,
      "ig": 1637,
      "\\r": 1638,
      "ft": 1639,
      "\\le": 1640,
      "ht": 1641,
      "ight": 1642,
      "\\right": 1643,
      "\\left": 1644,
      "ra": 1645,
      "fra": 1646,
      "frac": 1647,
      "\\frac": 1648,
      "\\p": 1649,
      "ta": 1650,
      "in": 1651,
      "ma": 1652,
      "al": 1653,
      "\\s": 1654,
      "ar": 1655,
      "\\b": 1656,
      "ti": 1657,
      "th": 1658,
      "\\in": 1659,
      "am": 1660,
      "\\o": 1661,
      "eta": 1662,
      "\\c": 1663,
      "ha": 1664,
      "me": 1665,
      "er": 1666,
      "\\,": 1667,
      "\\ma": 1668,
      "ot": 1669,
      "hi": 1670,
      "dot": 1671,
      "\\m": 1672,
      "\\math": 1673,
      "de": 1674,
      "\\e": 1675,
      "ver": 1676,
      "\\al": 1677,
      "pha": 1678,
      "\\alpha": 1679,
      "\\over": 1680,
      "si": 1681,
      "\\mu": 1682,
      "da": 1683,
      "\\su": 1684,
      "\\par": 1685,
      "tial": 1686,
      "\\partial": 1687,
      "amb": 1688,
      "ambda": 1689,
      "\\n": 1690,
      "\\v": 1691,
      "\\sum": 1692,
      "lta": 1693,
      "\\cdot": 1694,
      "\\lambda": 1695,
      "amma": 1696,
      "\\int": 1697,
      "\\g": 1698,
      "\\pi": 1699,
      "\\sq": 1700,
      "rt": 1701,
      "\\sqrt": 1702,
      "\\;": 1703,
      "\\var": 1704,
      "qu": 1705,
      "meg": 1706,
      "mega": 1707,
      "\\ti": 1708,
      "le": 1709,
      "igma": 1710,
      "\\beta": 1711,
      "\\pr": 1712,
      "theta": 1713,
      "lo": 1714,
      "ng": 1715,
      "\\de": 1716,
      "nd": 1717,
      "qua": 1718,
      "quad": 1719,
      "\\nu": 1720,
      "\\phi": 1721,
      "ngle": 1722,
      "\\sigma": 1723,
      "angle": 1724,
      "lon": 1725,
      "\\delta": 1726,
      "\\big": 1727,
      "psi": 1728,
      "psilon": 1729,
      "\\gamma": 1730,
      "\\theta": 1731,
      "\\mathb": 1732,
      "lde": 1733,
      "\\{": 1734,
      "\\inft": 1735,
      "\\infty": 1736,
      "ho": 1737,
      "eg": 1738,
      "\\quad": 1739,
      "\\!": 1740,
      "\\end": 1741,
      "egin": 1742,
      "\\begin": 1743,
      "\\ta": 1744,
      "hat": 1745,
      "\\}": 1746,
      "ime": 1747,
      "\\P": 1748,
      "\\tau": 1749,
      "\\prime": 1750,
      "\\rho": 1751,
      "\\omega": 1752,
      "\\tilde": 1753,
      "xi": 1754,
      "\\psi": 1755,
      "mes": 1756,
      "\\hat": 1757,
      "\\\\": 1758,
      "\\xi": 1759,
      "cal": 1760,
      "\\mathcal": 1761,
      "\\|": 1762,
      "\\bar": 1763,
      "\\t": 1764,
      "\\eta": 1765,
      "la": 1766,
      "\\B": 1767,
      "\\varp": 1768,
      "rm": 1769,
      "ine": 1770,
      "line": 1771,
      "\\Big": 1772,
      "\\varphi": 1773,
      "\\epsilon": 1774,
      "ro": 1775,
      "\\mathrm": 1776,
      "\\D": 1777,
      "elta": 1778,
      "\\Delta": 1779,
      "\\mathbb": 1780,
      "ap": 1781,
      "ll": 1782,
      "\\dot": 1783,
      "\\rangle": 1784,
      "\\leq": 1785,
      "\\overline": 1786,
      "\\w": 1787,
      "\\cal": 1788,
      "im": 1789,
      "ab": 1790,
      "\\nab": 1791,
      "\\nabla": 1792,
      "row": 1793,
      "arrow": 1794,
      "\\G": 1795,
      "\\Gamma": 1796,
      "\\O": 1797,
      "\\times": 1798,
      "\\Omega": 1799,
      "\\Phi": 1800,
      "\\ell": 1801,
      "app": 1802,
      "\\ve": 1803,
      "\\mathbf": 1804,
      "\\langle": 1805,
      "\\d": 1806,
      "\\ge": 1807,
      "\\vec": 1808,
      "\\L": 1809,
      "\\chi": 1810,
      "\\lim": 1811,
      "\\pm": 1812,
      "\\vare": 1813,
      "\\varepsilon": 1814,
      "\\k": 1815,
      "\\Lambda": 1816,
      "st": 1817,
      "\\bf": 1818,
      "dots": 1819,
      "\\rightarrow": 1820,
      "appa": 1821,
      "ide": 1822,
      "\\wide": 1823,
      "\\kappa": 1824,
      "\\lo": 1825,
      "\\z": 1826,
      "\\cdots": 1827,
      "\\zeta": 1828,
      "od": 1829,
      "times": 1830,
      "bo": 1831,
      "\\otimes": 1832,
      "ex": 1833,
      "\\tex": 1834,
      "\\to": 1835,
      "\\prod": 1836,
      "\\bigg": 1837,
      "\\text": 1838,
      "\\log": 1839,
      "\\Psi": 1840,
      "\\ldots": 1841,
      "iv": 1842,
      "\\co": 1843,
      "\\rm": 1844,
      "rc": 1845,
      "irc": 1846,
      "\\circ": 1847,
      "ed": 1848,
      "et": 1849,
      "\\geq": 1850,
      "box": 1851,
      "\\sin": 1852,
      "or": 1853,
      "\\h": 1854,
      "\\dots": 1855,
      "vert": 1856,
      "\\u": 1857,
      "ge": 1858,
      "quiv": 1859,
      "\\equiv": 1860,
      "edge": 1861,
      "\\cos": 1862,
      "tilde": 1863,
      "\\widetilde": 1864,
      "\\S": 1865,
      "\\wedge": 1866,
      "set": 1867,
      "\\mbox": 1868,
      "\\Sigma": 1869,
      "it": 1870,
      "\\op": 1871,
      "\\q": 1872,
      "\\vert": 1873,
      "\\qquad": 1874,
      "dag": 1875,
      "\\dag": 1876,
      "ck": 1877,
      "up": 1878,
      "its": 1879,
      "nder": 1880,
      "\\under": 1881,
      "\\vartheta": 1882,
      "\\a": 1883,
      "us": 1884,
      "xp": 1885,
      "ce": 1886,
      "\\exp": 1887,
      "\\limits": 1888,
      "\\Bigg": 1889,
      "\\sub": 1890,
      "eq": 1891,
      "ger": 1892,
      "\\dagger": 1893,
      "\\bo": 1894,
      "sp": 1895,
      "om": 1896,
      "\\ln": 1897,
      "\\f": 1898,
      "sty": 1899,
      "style": 1900,
      "\\widehat": 1901,
      "\\ast": 1902,
      "\\cap": 1903,
      "ightarrow": 1904,
      "\\bigr": 1905,
      "\\bigl": 1906,
      "\\Pi": 1907,
      "\\fo": 1908,
      "\\underline": 1909,
      "bar": 1910,
      "\\T": 1911,
      "\\hbar": 1912,
      "rall": 1913,
      "\\forall": 1914,
      "frak": 1915,
      "heta": 1916,
      "\\Theta": 1917,
      "rho": 1918,
      "\\varrho": 1919,
      "\\sta": 1920,
      "\\mathfrak": 1921,
      "\\sim": 1922,
      "\\Bigr": 1923,
      "lus": 1924,
      "orn": 1925,
      "\\subset": 1926,
      "id": 1927,
      "\\Bigl": 1928,
      "inom": 1929,
      "era": 1930,
      "erat": 1931,
      "ame": 1932,
      "\\operat": 1933,
      "orname": 1934,
      "\\operatorname": 1935,
      "appro": 1936,
      "approx": 1937,
      "\\approx": 1938,
      "ld": 1939,
      "\\mid": 1940,
      "\\di": 1941,
      "\\binom": 1942,
      "\\bold": 1943,
      "ert": 1944,
      "\\dfrac": 1945,
      "\\i": 1946,
      "lay": 1947,
      "splay": 1948,
      "\\display": 1949,
      "Vert": 1950,
      "\\displaystyle": 1951,
      "\\:": 1952,
      "rightarrow": 1953,
      "\\biggr": 1954,
      "\\neq": 1955,
      "\\biggl": 1956,
      "loor": 1957,
      "floor": 1958,
      "\\sup": 1959,
      "pt": 1960,
      "ym": 1961,
      "sym": 1962,
      "\\cup": 1963,
      "\\Vert": 1964,
      "bol": 1965,
      "symbol": 1966,
      "\\boldsymbol": 1967,
      "\\max": 1968,
      "\\oplus": 1969,
      "\\angle": 1970,
      "\\div": 1971,
      "\\star": 1972,
      "\\per": 1973,
      "\\perp": 1974,
      "ri": 1975,
      "\\Biggl": 1976,
      "\\Biggr": 1977,
      "\\det": 1978,
      "\\min": 1979,
      "re": 1980,
      "\\not": 1981,
      "bra": 1982,
      "\\tfrac": 1983,
      "\\R": 1984,
      "\\bigc": 1985,
      "sla": 1986,
      "nt": 1987,
      "\\textrm": 1988,
      "\\ne": 1989,
      "op": 1990,
      "min": 1991,
      "minus": 1992,
      "sta": 1993,
      "\\vee": 1994,
      "\\substa": 1995,
      "\\substack": 1996,
      "sh": 1997,
      "sto": 1998,
      "psto": 1999,
      "brace": 2000,
      "\\subseteq": 2001,
      "ace": 2002,
      "\\mapsto": 2003,
      "\\set": 2004,
      "space": 2005,
      "\\setminus": 2006,
      "\\rfloor": 2007,
      "rel": 2008,
      "\\lfloor": 2009,
      "ota": 2010,
      "\\iota": 2011,
      "int": 2012,
      "\\box": 2013,
      "ckrel": 2014,
      "\\stackrel": 2015,
      "lle": 2016,
      "\\vdots": 2017,
      "\\textb": 2018,
      "\\bigcup": 2019,
      "\\textbf": 2020,
      "\\inf": 2021,
      "math": 2022,
      "\\sinh": 2023,
      "\\Rightarrow": 2024,
      "\\cosh": 2025,
      "\\boxed": 2026,
      "\\#": 2027,
      "\\tan": 2028,
      "sf": 2029,
      "\\mp": 2030,
      "\\hspace": 2031,
      "ngrightarrow": 2032,
      "\\mathsf": 2033,
      "an": 2034,
      "slash": 2035,
      "\\notin": 2036,
      "cri": 2037,
      "cript": 2038,
      "ance": 2039,
      "ancel": 2040,
      "\\dim": 2041,
      "hoo": 2042,
      "se": 2043,
      "\\sime": 2044,
      "\\simeq": 2045,
      "\\cancel": 2046,
      "ack": 2047,
      "ackslash": 2048,
      "\\X": 2049,
      "\\backslash": 2050,
      "ntom": 2051,
      "\\em": 2052,
      "\\bu": 2053,
      "riangle": 2054,
      "\\top": 2055,
      "\\Xi": 2056,
      "llet": 2057,
      "\\bullet": 2058,
      "\\longrightarrow": 2059,
      "\\choo": 2060,
      "\\choose": 2061,
      "il": 2062,
      "\\oint": 2063,
      "pty": 2064,
      "\\empty": 2065,
      "\\emptyset": 2066,
      "\\hbox": 2067,
      "ceil": 2068,
      "\\triangle": 2069,
      "\\bigop": 2070,
      "\\bigoplus": 2071,
      "\\cong": 2072,
      "he": 2073,
      "to": 2074,
      "\\cancelto": 2075,
      "heck": 2076,
      "xist": 2077,
      "\\check": 2078,
      "xists": 2079,
      "\\exists": 2080,
      "\\ddot": 2081,
      "slant": 2082,
      "\\pha": 2083,
      "\\phantom": 2084,
      "\\textstyle": 2085,
      "\\neg": 2086,
      "\\pro": 2087,
      "pto": 2088,
      "\\propto": 2089,
      "\\underset": 2090,
      "\\colon": 2091,
      "\\script": 2092,
      "sim": 2093,
      "\\ll": 2094,
      "ss": 2095,
      "\\less": 2096,
      "\\x": 2097,
      "har": 2098,
      "\\lesssim": 2099,
      "harp": 2100,
      "lor": 2101,
      "\\varpi": 2102,
      "\\ddots": 2103,
      "\\color": 2104,
      "\\Re": 2105,
      "\\deg": 2106,
      "\\underbrace": 2107,
      "\\bigcap": 2108,
      "\\overset": 2109,
      "\\ar": 2110,
      "\\U": 2111,
      "\\leqslant": 2112,
      "ftrightarrow": 2113,
      "sup": 2114,
      "\\bot": 2115,
      "wn": 2116,
      "own": 2117,
      "\\limsup": 2118,
      "\\upsilon": 2119,
      "\\Upsilon": 2120,
      "\\sf": 2121,
      "\\j": 2122,
      "ownarrow": 2123,
      "\\sharp": 2124,
      "\\overrightarrow": 2125,
      "\\boldmath": 2126,
      "\\imath": 2127,
      "\\up": 2128,
      "\\lbrace": 2129,
      "\\I": 2130,
      "\\downarrow": 2131,
      "\\rvert": 2132,
      "\\lvert": 2133,
      "\\no": 2134,
      "\\mathop": 2135,
      "brack": 2136,
      "ve": 2137,
      "\\rceil": 2138,
      "\\lceil": 2139,
      "\\leftrightarrow": 2140,
      "\\iint": 2141,
      "\\rbrace": 2142,
      "\\uparrow": 2143,
      "\\Im": 2144,
      "ph": 2145,
      "\\%": 2146,
      "\\textup": 2147,
      "\\ker": 2148,
      "dash": 2149,
      "mal": 2150,
      "ip": 2151,
      "script": 2152,
      "\\pmod": 2153,
      "sk": 2154,
      "skip": 2155,
      "ormal": 2156,
      "\\tanh": 2157,
      "lim": 2158,
      "ara": 2159,
      "aralle": 2160,
      "arallel": 2161,
      "ef": 2162,
      "\\supset": 2163,
      "\\parallel": 2164,
      "top": 2165,
      "\\atop": 2166,
      "\\gg": 2167,
      "normal": 2168,
      "\\textnormal": 2169,
      "\\Le": 2170,
      "\\th": 2171,
      "\\Leftrightarrow": 2172,
      "inf": 2173,
      "\\vdash": 2174,
      "\\liminf": 2175,
      "\\lbrack": 2176,
      "ec": 2177,
      "\\scriptscript": 2178,
      "\\scriptscriptstyle": 2179,
      "\\Lo": 2180,
      "\\odot": 2181,
      "\\arc": 2182,
      "\\it": 2183,
      "\\cot": 2184,
      "\\hline": 2185,
      "\\vars": 2186,
      "\\varsigma": 2187,
      "\\Pr": 2188,
      "\\bre": 2189,
      "\\breve": 2190,
      "ze": 2191,
      "eph": 2192,
      "\\aleph": 2193,
      "\\sma": 2194,
      "\\frak": 2195,
      "\\wp": 2196,
      "size": 2197,
      "\\jmath": 2198,
      "\\cr": 2199,
      "cup": 2200,
      "\\>": 2201,
      "\\leftarrow": 2202,
      "\\lVert": 2203,
      "\\small": 2204,
      "limits": 2205,
      "\\if": 2206,
      "ing": 2207,
      "\\nolimits": 2208,
      "iny": 2209,
      "are": 2210,
      "\\tiny": 2211,
      "phantom": 2212,
      "\\rVert": 2213,
      "eqq": 2214,
      "uare": 2215,
      "\\square": 2216,
      "\\iff": 2217,
      "\\geqslant": 2218,
      "\\sp": 2219,
      "ngleftrightarrow": 2220,
      "on": 2221,
      "\\en": 2222,
      "\\pmb": 2223,
      "\\arg": 2224,
      "ut": 2225,
      "ond": 2226,
      "lat": 2227,
      "\\flat": 2228,
      "\\hskip": 2229,
      "amond": 2230,
      "um": 2231,
      "\\A": 2232,
      "\\scriptstyle": 2233,
      "\\eq": 2234,
      "\\coloneqq": 2235,
      "\\mod": 2236,
      "\\scriptsize": 2237,
      "\\textc": 2238,
      "\\bm": 2239,
      "left": 2240,
      "\\bmod": 2241,
      "\\triangleq": 2242,
      "tan": 2243,
      "\\diamond": 2244,
      "cd": 2245,
      "ref": 2246,
      "\\eqref": 2247,
      "led": 2248,
      "\\arctan": 2249,
      "\\Bo": 2250,
      "ore": 2251,
      "\\Box": 2252,
      "\\ther": 2253,
      "efore": 2254,
      "\\therefore": 2255,
      "\\gcd": 2256,
      "wedge": 2257,
      "\\bigwedge": 2258,
      "\\mat": 2259,
      "\\non": 2260,
      "ber": 2261,
      "umber": 2262,
      "\\nonumber": 2263,
      "ircled": 2264,
      "\\textcircled": 2265,
      "htt": 2266,
      "\\mathtt": 2267,
      "\\xrightarrow": 2268,
      "\\ref": 2269,
      "\\dotsc": 2270,
      "\\coth": 2271,
      "\\mathr": 2272,
      "\\ominus": 2273,
      "\\Longrightarrow": 2274,
      "\\sqcup": 2275,
      "tit": 2276,
      "\\textit": 2277,
      "and": 2278,
      "\\mathring": 2279,
      "\\land": 2280,
      "co": 2281,
      "\\mathit": 2282,
      "dle": 2283,
      "\\middle": 2284,
      "\\[": 2285,
      "\\]": 2286,
      "ie": 2287,
      "\\boxtimes": 2288,
      "\\ni": 2289,
      "ign": 2290,
      "harpo": 2291,
      "\\Longleftrightarrow": 2292,
      "triangle": 2293,
      "ies": 2294,
      "\\hdots": 2295,
      "pl": 2296,
      "kappa": 2297,
      "\\varkappa": 2298,
      "\\im": 2299,
      "\\ac": 2300,
      "plies": 2301,
      "\\implies": 2302,
      "\\vphantom": 2303,
      "harpoon": 2304,
      "ute": 2305,
      "\\acute": 2306,
      "\\kern": 2307,
      "bb": 2308,
      "\\Bbb": 2309,
      "\\prec": 2310,
      "inspace": 2311,
      "\\y": 2312,
      "\\bigo": 2313,
      "hook": 2314,
      "ode": 2315,
      "\\thinspace": 2316,
      "ls": 2317,
      "\\hook": 2318,
      "odels": 2319,
      "\\models": 2320,
      "\\enspace": 2321,
      "\\hookrightarrow": 2322,
      "\\rbrack": 2323,
      "\\bigotimes": 2324,
      "arge": 2325,
      "binom": 2326,
      "ceq": 2327,
      "\\bra": 2328,
      "\\bigtriangle": 2329,
      "\\supseteq": 2330,
      "\\dotsb": 2331,
      "\\dotsm": 2332,
      "\\subsetn": 2333,
      "\\pre": 2334,
      "hd": 2335,
      "vee": 2336,
      "sc": 2337,
      "tt": 2338,
      "\\quadx": 2339,
      "\\texttt": 2340,
      "\\bigvee": 2341,
      "\\V": 2342,
      "\\intd": 2343,
      "\\cfrac": 2344,
      "\\cdotp": 2345,
      "\\H": 2346,
      "\\_": 2347,
      "\\emph": 2348,
      "igned": 2349,
      "\\C": 2350,
      "\\sla": 2351,
      "\\slash": 2352,
      "at": 2353,
      "\\suc": 2354,
      "sq": 2355,
      "\\bigsq": 2356,
      "\\bigsqcup": 2357,
      "ext": 2358,
      "\\brack": 2359,
      "ertext": 2360,
      "\\&": 2361,
      "\\bigtriangleup": 2362,
      "mapsto": 2363,
      "\\long": 2364,
      "\\longmapsto": 2365,
      "jlim": 2366,
      "leftarrow": 2367,
      "su": 2368,
      "\\F": 2369,
      "\\subsetneq": 2370,
      "\\doteq": 2371,
      "\\dx": 2372,
      "ang": 2373,
      "\\hphantom": 2374,
      "angl": 2375,
      "\\qua": 2376,
      "eright": 2377,
      "riangl": 2378,
      "riangleright": 2379,
      "tr": 2380,
      "harpoonup": 2381,
      "ilde": 2382,
      "\\re": 2383,
      "ral": 2384,
      "\\Tilde": 2385,
      "\\rtimes": 2386,
      "cos": 2387,
      "\\textsf": 2388,
      "mid": 2389,
      "\\inter": 2390,
      "\\intercal": 2391,
      "\\overbrace": 2392,
      "\\quadA": 2393,
      "\\tt": 2394,
      "\\rightharpoonup": 2395,
      "\\nmid": 2396,
      "\\E": 2397,
      "\\intertext": 2398,
      "\\J": 2399,
      "sin": 2400,
      "ker": 2401,
      "\\varP": 2402,
      "\\(": 2403,
      "\\)": 2404,
      "\\mit": 2405,
      "kern": 2406,
      "\\mkern": 2407,
      "eca": 2408,
      "\\beca": 2409,
      "use": 2410,
      "\\because": 2411,
      "\\rhd": 2412,
      "ai": 2413,
      "\\N": 2414,
      "\\triangleright": 2415,
      "\\M": 2416,
      "\\longleftrightarrow": 2417,
      "not": 2418,
      "otnot": 2419,
      "\\footnot": 2420,
      "\\footnote": 2421,
      "oth": 2422,
      "\\se": 2423,
      "atu": 2424,
      "\\natu": 2425,
      "\\natural": 2426,
      "ak": 2427,
      "\\rai": 2428,
      "\\sb": 2429,
      "noth": 2430,
      "\\varnoth": 2431,
      "\\varnothing": 2432,
      "\\raise": 2433,
      "\\searrow": 2434,
      "\\large": 2435,
      "\\preceq": 2436,
      "low": 2437,
      "\\lor": 2438,
      "bre": 2439,
      "\\arccos": 2440,
      "break": 2441,
      "lap": 2442,
      "xplus": 2443,
      "\\boxplus": 2444,
      "\\footnotesize": 2445,
      "\\tbinom": 2446,
      "\\ss": 2447,
      "\\quada": 2448,
      "\\Q": 2449,
      "ts": 2450,
      "med": 2451,
      "\\allow": 2452,
      "\\gets": 2453,
      "\\asym": 2454,
      "\\asymp": 2455,
      "\\sec": 2456,
      "orner": 2457,
      "\\circle": 2458,
      "\\dbinom": 2459,
      "\\med": 2460,
      "\\overleftarrow": 2461,
      "\\Large": 2462,
      "\\csc": 2463,
      "Gamma": 2464,
      "\\varGamma": 2465,
      "\\K": 2466,
      "\\arcsin": 2467,
      "\\allowbreak": 2468,
      "nfrac": 2469,
      "\\genfrac": 2470,
      "\\succeq": 2471,
      "\\gtr": 2472,
      "\\enskip": 2473,
      "ild": 2474,
      "\\build": 2475,
      "\\medskip": 2476,
      "\\buildrel": 2477,
      "\\varpro": 2478,
      "ray": 2479,
      "\\array": 2480,
      "aligned": 2481,
      "\\endaligned": 2482,
      "\\varprojlim": 2483,
      "\\sumi": 2484,
      "\\aligned": 2485,
      "\\textsc": 2486,
      "com": 2487,
      "mand": 2488,
      "command": 2489,
      "down": 2490,
      "wcommand": 2491,
      "\\cop": 2492,
      "\\intop": 2493,
      "rod": 2494,
      "mi": 2495,
      "rcorner": 2496,
      "\\triangleleft": 2497,
      "\\prescript": 2498,
      "\\gtrsim": 2499,
      "\\Y": 2500,
      "\\^": 2501,
      "\\lrcorner": 2502,
      "\\po": 2503,
      "\\coprod": 2504,
      "\\partialx": 2505,
      "setminus": 2506,
      "\\smallsetminus": 2507,
      "und": 2508,
      "mile": 2509,
      "\\and": 2510,
      "\\pound": 2511,
      "\\pounds": 2512,
      "align": 2513,
      "sion": 2514,
      "col": 2515,
      "\\succ": 2516,
      "\\varPhi": 2517,
      "right": 2518,
      "\\mathver": 2519,
      "\\mathversion": 2520,
      "ect": 2521,
      "injlim": 2522,
      "\\varinjlim": 2523,
      "\\underbar": 2524,
      "\\hf": 2525,
      "\\ltimes": 2526,
      "\\nearrow": 2527,
      "\\smile": 2528,
      "otect": 2529,
      "\\protect": 2530,
      "ngth": 2531,
      "length": 2532,
      "ule": 2533,
      "\\quadS": 2534,
      "\\ds": 2535,
      "\\quadB": 2536,
      "ch": 2537,
      "\\/": 2538,
      "\\quads": 2539,
      "\\noalign": 2540,
      "sure": 2541,
      "\\ho": 2542,
      "\\Bar": 2543,
      "\\Vdash": 2544,
      "\\for": 2545,
      "\\Z": 2546,
      "\\dt": 2547,
      "\\hom": 2548,
      "\\quadP": 2549,
      "\\put": 2550,
      "\\raisebox": 2551,
      "ke": 2552,
      "\\hslash": 2553,
      "\\mathrel": 2554,
      "\\W": 2555,
      "\\real": 2556,
      "\\quadd": 2557,
      "\\ensure": 2558,
      "\\ensuremath": 2559,
      "str": 2560,
      "\\quadf": 2561,
      "\\Bbbk": 2562,
      "\\quady": 2563,
      "\\*": 2564,
      "iint": 2565,
      "\\side": 2566,
      "\\sideset": 2567,
      "\\vspace": 2568,
      "\\leqq": 2569,
      "\\AA": 2570,
      "el": 2571,
      "\\quadC": 2572,
      "\\iiint": 2573,
      "\\lab": 2574,
      "\\label": 2575,
      "\\-": 2576,
      "\\smash": 2577,
      "ij": 2578,
      "\\quadR": 2579,
      "harpoons": 2580,
      "rown": 2581,
      "\\quadM": 2582,
      "\\partialt": 2583,
      "\\un": 2584,
      "\\lhd": 2585,
      "\\make": 2586,
      "\\quadF": 2587,
      "\\makebox": 2588,
      "\\quadp": 2589,
      "\\varPsi": 2590,
      "\\subsetneqq": 2591,
      "\\rightleft": 2592,
      "\\rightleftharpoons": 2593,
      "\\pii": 2594,
      "\\xleftarrow": 2595,
      "\\smallskip": 2596,
      "\\sumn": 2597,
      "etch": 2598,
      "\\arraystr": 2599,
      "\\arraystretch": 2600,
      "bset": 2601,
      "dx": 2602,
      "\\sumj": 2603,
      "ill": 2604,
      "ur": 2605,
      "suit": 2606,
      "dast": 2607,
      "\\circledast": 2608,
      "ell": 2609,
      "\\mspace": 2610,
      "\\bigtriangledown": 2611,
      "psis": 2612,
      "\\quadX": 2613,
      "ipsis": 2614,
      "\\mathell": 2615,
      "\\mathellipsis": 2616,
      "\\quadn": 2617,
      "\\newcommand": 2618,
      "tion": 2619,
      "\\quadE": 2620,
      "sep": 2621,
      "\\sl": 2622,
      "\\setlength": 2623,
      "\\eth": 2624,
      "\\upharpoon": 2625,
      "pe": 2626,
      "\\sumk": 2627,
      "\\quadc": 2628,
      "\\upharpoonright": 2629,
      "\\llap": 2630,
      "\\mul": 2631,
      "ne": 2632,
      "\\ddag": 2633,
      "\\quadD": 2634,
      "\\ce": 2635,
      "\\hfill": 2636,
      "hape": 2637,
      "\\quadT": 2638,
      "\\str": 2639,
      "\\quadr": 2640,
      "\\multi": 2641,
      "\\quadm": 2642,
      "mp": 2643,
      "\\quadV": 2644,
      "ment": 2645,
      "\\brace": 2646,
      "\\strut": 2647,
      "colsep": 2648,
      "\\dv": 2649,
      "\\sho": 2650,
      "\\bigm": 2651,
      "\\bc": 2652,
      "\\mathc": 2653,
      "\\short": 2654,
      "\\quadt": 2655,
      "\\normal": 2656,
      "\\quadb": 2657,
      "\\quadk": 2658,
      "\\all": 2659,
      "\\quadI": 2660,
      "\\arraycolsep": 2661,
      "\\rlap": 2662,
      "\\quadg": 2663,
      "\\fbox": 2664,
      "\\def": 2665,
      "\\quade": 2666,
      "\\ro": 2667,
      "ad": 2668,
      "rix": 2669,
      "nter": 2670,
      "\\ddagger": 2671,
      "Omega": 2672,
      "\\varOmega": 2673,
      "newcommand": 2674,
      "\\Deltax": 2675,
      "\\renewcommand": 2676,
      "\\quadL": 2677,
      "\\quadu": 2678,
      "\\arrow": 2679,
      "rule": 2680,
      "\\vline": 2681,
      "\\bcancel": 2682,
      "mat": 2683,
      "\\mathbin": 2684,
      "ly": 2685,
      "\\normalsize": 2686,
      "\\frown": 2687,
      "\\arrowvert": 2688,
      "isplay": 2689,
      "ftarrow": 2690,
      "\\rule": 2691,
      "subset": 2692,
      "matrix": 2693,
      "\\ab": 2694,
      "\\bigcirc": 2695,
      "ith": 2696,
      "ngleftarrow": 2697,
      "\\vartriangle": 2698,
      "\\quadG": 2699,
      "umn": 2700,
      "column": 2701,
      "\\multicolumn": 2702,
      "\\cline": 2703,
      "\\quadH": 2704,
      "\\diamondsuit": 2705,
      "\\Hat": 2706,
      "\\tag": 2707,
      "\\quadK": 2708,
      "\\cur": 2709,
      "\\quadN": 2710,
      "\\quadh": 2711,
      "\\line": 2712,
      "nge": 2713,
      "ction": 2714,
      "\\of": 2715,
      "\\dd": 2716,
      "arrowleft": 2717,
      "ick": 2718,
      "\\triangledown": 2719,
      "\\comp": 2720,
      "\\lg": 2721,
      "\\quadU": 2722,
      "stri": 2723,
      "\\space": 2724,
      "\\restri": 2725,
      "Delta": 2726,
      "\\varDelta": 2727,
      "\\hfil": 2728,
      "\\restriction": 2729,
      "downarrow": 2730,
      "en": 2731,
      "\\Up": 2732,
      "nu": 2733,
      "\\Di": 2734,
      "\\varlim": 2735,
      "\\dy": 2736,
      "\\SS": 2737,
      "lement": 2738,
      "\\bla": 2739,
      "\\Diamond": 2740,
      "\\black": 2741,
      "\\quadi": 2742,
      "squ": 2743,
      "\\complement": 2744,
      "olor": 2745,
      "\\textcolor": 2746,
      "shape": 2747,
      "\\longleftarrow": 2748,
      "\\dddot": 2749,
      "\\intD": 2750,
      "rd": 2751,
      "\\geqq": 2752,
      "\\quadv": 2753,
      "lpha": 2754,
      "ord": 2755,
      "intertext": 2756,
      "\\shortintertext": 2757,
      "ase": 2758,
      "\\inS": 2759,
      "\\quadz": 2760,
      "\\Alpha": 2761,
      "\\bigup": 2762,
      "\\center": 2763,
      "\\biguplus": 2764,
      "\\xlo": 2765,
      "cap": 2766,
      "\\lefteq": 2767,
      "\\partialz": 2768,
      "\\ae": 2769,
      "\\lnot": 2770,
      "\\lefteqn": 2771,
      "\\vrule": 2772,
      "\\quadw": 2773,
      "\\upshape": 2774,
      "\\thick": 2775,
      "Lambda": 2776,
      "\\partialy": 2777,
      "\\sqcap": 2778,
      "\\varLambda": 2779,
      "\\0": 2780,
      "\\inA": 2781,
      "\\nablau": 2782,
      "md": 2783,
      "man": 2784,
      "\\quadQ": 2785,
      "\\sqsubset": 2786,
      "\\null": 2787,
      "ite": 2788,
      "display": 2789,
      "\\cite": 2790,
      "\\centerdot": 2791,
      "\\leqC": 2792,
      "colon": 2793,
      "\\mathclap": 2794,
      "per": 2795,
      "root": 2796,
      "\\prodi": 2797,
      "itlength": 2798,
      "\\unitlength": 2799,
      "anda": 2800,
      "case": 2801,
      "wo": 2802,
      "fter": 2803,
      "meral": 2804,
      "\\biggm": 2805,
      "\\expanda": 2806,
      "\\upper": 2807,
      "\\roman": 2808,
      "numeral": 2809,
      "\\expandafter": 2810,
      "\\uppercase": 2811,
      "\\romannumeral": 2812,
      "\\textmd": 2813,
      "dt": 2814,
      "\\omegat": 2815,
      "corner": 2816,
      "\\smallint": 2817,
      "qual": 2818,
      "\\quadZ": 2819,
      "\\inR": 2820,
      "\\mathord": 2821,
      "\\surd": 2822,
      "\\textbackslash": 2823,
      "head": 2824,
      "\\inI": 2825,
      "\\two": 2826,
      "\\twohead": 2827,
      "\\<": 2828,
      "\\wr": 2829,
      "arrowright": 2830,
      "ngequal": 2831,
      "\\xlongequal": 2832,
      "\\inX": 2833,
      "\\quadW": 2834,
      "\\sc": 2835,
      "\\do": 2836,
      "AB": 2837,
      "igarrow": 2838,
      "\\leqn": 2839,
      "\\circlearrowleft": 2840,
      "squigarrow": 2841,
      "exp": 2842,
      "\\quadq": 2843,
      "\\Deltat": 2844,
      "triangleright": 2845,
      "with": 2846,
      "\\dz": 2847,
      "\\curve": 2848,
      "\\twoheadrightarrow": 2849,
      "\\inC": 2850,
      "\\gra": 2851,
      "\\amal": 2852,
      "super": 2853,
      "\\updownarrow": 2854,
      "\\amalg": 2855,
      "AR": 2856,
      "\\smallf": 2857,
      "\\grave": 2858,
      "\\piG": 2859,
      "\\smallfrown": 2860,
      "\\rightsquigarrow": 2861,
      "\\leqi": 2862,
      "\\Uparrow": 2863,
      "dd": 2864,
      "\\oslash": 2865,
      "\\slashed": 2866,
      "\\intdx": 2867,
      "GE": 2868,
      "\\vce": 2869,
      "superscript": 2870,
      "cur": 2871,
      "\\Downarrow": 2872,
      "\\LAR": 2873,
      "\\LARGE": 2874,
      "uge": 2875,
      "\\partialu": 2876,
      "lyeq": 2877,
      "curlyeq": 2878,
      "\\inG": 2879,
      "for": 2880,
      "\\inV": 2881,
      "\\inH": 2882,
      "\\quadY": 2883,
      "\\dash": 2884,
      "\\inB": 2885,
      "\\llcorner": 2886,
      "\\uplus": 2887,
      "\\low": 2888,
      "rightarrows": 2889,
      "\\root": 2890,
      "\\supsetn": 2891,
      "\\ggg": 2892,
      "\\rela": 2893,
      "\\trianglelefteq": 2894,
      "\\blacktriangleright": 2895,
      "\\rightrightarrows": 2896,
      "\\varlimsup": 2897,
      "\\lower": 2898,
      "ln": 2899,
      "\\inL": 2900,
      "ambd": 2901,
      "log": 2902,
      "\\quadO": 2903,
      "ubset": 2904,
      "\\partialf": 2905,
      "igamma": 2906,
      "\\pir": 2907,
      "\\pit": 2908,
      "\\quadJ": 2909,
      "\\digamma": 2910,
      "\\circled": 2911,
      "\\mathopen": 2912,
      "\\thetad": 2913,
      "\\its": 2914,
      "\\inE": 2915,
      "\\muA": 2916,
      "lose": 2917,
      "\\mathclose": 2918,
      "\\itshape": 2919,
      "parallel": 2920,
      "sl": 2921,
      "\\nul": 2922,
      "\\quadj": 2923,
      "warrow": 2924,
      "\\lambd": 2925,
      "\\rq": 2926,
      "\\lambdax": 2927,
      "erator": 2928,
      "limit": 2929,
      "perator": 2930,
      "erspace": 2931,
      "ldelimit": 2932,
      "\\nulldelimit": 2933,
      "\\nulldelimiterspace": 2934,
      "\\partiali": 2935,
      "\\textsl": 2936,
      "\\relax": 2937,
      "ove": 2938,
      "\\mua": 2939,
      "bmatrix": 2940,
      "\\be": 2941,
      "\\bmatrix": 2942,
      "\\endbmatrix": 2943,
      "\\piR": 2944,
      "\\dotsi": 2945,
      "cu": 2946,
      "\\vskip": 2947,
      "\\$": 2948,
      "ag": 2949,
      "\\partialL": 2950,
      "\\summ": 2951,
      "\\with": 2952,
      "\\du": 2953,
      "ial": 2954,
      "\\ldot": 2955,
      "\\pin": 2956,
      "\\or": 2957,
      "\\sqrtn": 2958,
      "\\ldotp": 2959,
      "\\tox": 2960,
      "\\textsuperscript": 2961,
      "ntcolon": 2962,
      "\\vcentcolon": 2963,
      "cla": 2964,
      "\\sqrtg": 2965,
      "\\Beta": 2966,
      "ov": 2967,
      "\\partialr": 2968,
      "Le": 2969,
      "mentcla": 2970,
      "\\docu": 2971,
      "mentclass": 2972,
      "\\documentclass": 2973,
      "\\alphai": 2974,
      "\\ij": 2975,
      "\\is": 2976,
      "au": 2977,
      "\\odd": 2978,
      "\\inftyd": 2979,
      "\\capB": 2980,
      "\\an": 2981,
      "ree": 2982,
      "\\shortparallel": 2983,
      "\\supsetneq": 2984,
      "ct": 2985,
      "qLe": 2986,
      "\\partialX": 2987,
      "star": 2988,
      "\\varliminf": 2989,
      "EqLe": 2990,
      "\\inU": 2991,
      "\\deltaA": 2992,
      "\\bigstar": 2993,
      "edisplay": 2994,
      "\\Move": 2995,
      "\\abov": 2996,
      "\\curly": 2997,
      "EqLeft": 2998,
      "edisplayskip": 2999,
      "\\MoveEqLeft": 3000,
      "\\abovedisplayskip": 3001,
      "\\tot": 3002,
      "\\uproot": 3003,
      "\\Chi": 3004,
      "\\any": 3005,
      "Xi": 3006,
      "dy": 3007,
      "sho": 3008,
      "\\quadl": 3009,
      "dotsint": 3010,
      "\\Tr": 3011,
      "\\diag": 3012,
      "\\idotsint": 3013,
      "\\smasho": 3014,
      "\\below": 3015,
      "\\smashoperator": 3016,
      "\\so": 3017,
      "\\on": 3018,
      "\\suma": 3019,
      "less": 3020,
      "\\leqk": 3021,
      "\\hrule": 3022,
      "\\Tau": 3023,
      "\\thicksim": 3024,
      "\\lead": 3025,
      "eri": 3026,
      "\\mudx": 3027,
      "\\lambdai": 3028,
      "\\bigskip": 3029,
      "\\tr": 3030,
      "\\Deltau": 3031,
      "\\mathrlap": 3032,
      "breaks": 3033,
      "\\allowdisplay": 3034,
      "displayskip": 3035,
      "\\belowdisplayskip": 3036,
      "\\leadsto": 3037,
      "\\allowdisplaybreaks": 3038,
      "ear": 3039,
      "\\swarrow": 3040,
      "\\back": 3041,
      "\\inN": 3042,
      "\\inde": 3043,
      "\\DeltaAB": 3044,
      "\\inM": 3045,
      "\\partialA": 3046,
      "\\deltaij": 3047,
      "\\nablaf": 3048,
      "\\timesB": 3049,
      "lhd": 3050,
      "tsuit": 3051,
      "psilo": 3052,
      "\\leqt": 3053,
      "\\hear": 3054,
      "strut": 3055,
      "\\unlhd": 3056,
      "erical": 3057,
      "\\heartsuit": 3058,
      "\\sph": 3059,
      "\\inD": 3060,
      "\\inZ": 3061,
      "\\mathstrut": 3062,
      "\\nsubset": 3063,
      "\\prodj": 3064,
      "\\varPi": 3065,
      "\\Updownarrow": 3066,
      "\\curlyvee": 3067,
      "ericalangle": 3068,
      "\\sphericalangle": 3069,
      "\\nsubseteq": 3070,
      "\\leftroot": 3071,
      "\\partiala": 3072,
      "\\lambdan": 3073,
      "roup": 3074,
      "zenge": 3075,
      "\\fra": 3076,
      "ere": 3077,
      "lines": 3078,
      "\\timesS": 3079,
      "\\lozenge": 3080,
      "\\thicklines": 3081,
      "\\inT": 3082,
      "\\nuF": 3083,
      "ei": 3084,
      "\\mho": 3085,
      "\\sqr": 3086,
      "\\Subset": 3087,
      "ven": 3088,
      "\\the": 3089,
      "\\frame": 3090,
      "qcolon": 3091,
      "rint": 3092,
      "\\partialv": 3093,
      "\\nump": 3094,
      "\\eqqcolon": 3095,
      "\\numprint": 3096,
      "max": 3097,
      "\\partialF": 3098,
      "\\lambdaI": 3099,
      "\\curvearrowleft": 3100,
      "\\dashv": 3101,
      "\\Bigm": 3102,
      "\\epsilonij": 3103,
      "\\underrightarrow": 3104,
      "\\binomial": 3105,
      "\\neqi": 3106,
      "\\arctanh": 3107,
      "\\succcurlyeq": 3108,
      "\\curvearrowright": 3109,
      "Da": 3110,
      "\\Biggm": 3111,
      "\\approxeq": 3112,
      "\\circledS": 3113,
      "Sigma": 3114,
      "ol": 3115,
      "\\partialp": 3116,
      "supset": 3117,
      "lims": 3118,
      "\\some": 3119,
      "\\mux": 3120,
      "\\intf": 3121,
      "\\deltax": 3122,
      "\\huge": 3123,
      "\\And": 3124,
      "\\framebox": 3125,
      "\\inF": 3126,
      "delims": 3127,
      "\\alphan": 3128,
      "\\partialV": 3129,
      "\\partialg": 3130,
      "\\lambdaf": 3131,
      "\\varSigma": 3132,
      "\\pmi": 3133,
      "\\neqj": 3134,
      "sub": 3135,
      "\\abs": 3136,
      "withdelims": 3137,
      "mn": 3138,
      "\\inP": 3139,
      "\\intM": 3140,
      "\\leqN": 3141,
      "\\df": 3142,
      "bracket": 3143,
      "\\Huge": 3144,
      "\\Epsilon": 3145,
      "\\me": 3146,
      "\\inK": 3147,
      "\\inta": 3148,
      "\\even": 3149,
      "\\mun": 3150,
      "\\partialT": 3151,
      "\\DeltaA": 3152,
      "\\cupB": 3153,
      "\\negmed": 3154,
      "\\norm": 3155,
      "\\negmedspace": 3156,
      "\\~": 3157,
      "circ": 3158,
      "here": 3159,
      "tail": 3160,
      "\\vDa": 3161,
      "\\lambdaa": 3162,
      "\\ad": 3163,
      "\\preccurlyeq": 3164,
      "\\vDash": 3165,
      "ii": 3166,
      "sor": 3167,
      "\\suml": 3168,
      "\\sump": 3169,
      "\\sqsupset": 3170,
      "\\eqsim": 3171,
      "\\medspace": 3172,
      "unter": 3173,
      "\\partialj": 3174,
      "leftrightarrow": 3175,
      "bold": 3176,
      "\\tok": 3177,
      "counter": 3178,
      "fork": 3179,
      "Tr": 3180,
      "smile": 3181,
      "\\overleftrightarrow": 3182,
      "\\lambdak": 3183,
      "\\smallsmile": 3184,
      "chfork": 3185,
      "\\pitchfork": 3186,
      "subscript": 3187,
      "Rightarrow": 3188,
      "ds": 3189,
      "\\mub": 3190,
      "\\lambdaj": 3191,
      "\\intC": 3192,
      "\\intx": 3193,
      "\\leqx": 3194,
      "\\timesR": 3195,
      "ensor": 3196,
      "\\=": 3197,
      "\\alphaa": 3198,
      "\\alphaj": 3199,
      "\\intR": 3200,
      "\\dotso": 3201,
      "\\new": 3202,
      "ondown": 3203,
      "\\circlearrowright": 3204,
      "\\mea": 3205,
      "\\1": 3206,
      "fo": 3207,
      "\\partialq": 3208,
      "\\intS": 3209,
      "\\nudx": 3210,
      "\\omegak": 3211,
      "\\DeltaT": 3212,
      "\\timesU": 3213,
      "harpoondown": 3214,
      "\\DeltaABC": 3215,
      "\\newline": 3216,
      "Theta": 3217,
      "\\muD": 3218,
      "\\partialB": 3219,
      "\\partialS": 3220,
      "\\pim": 3221,
      "\\varTheta": 3222,
      "\\nuA": 3223,
      "\\tensor": 3224,
      "\\leqj": 3225,
      "\\dr": 3226,
      "\\rightarrowtail": 3227,
      "\\con": 3228,
      "\\xRightarrow": 3229,
      "\\hdotsfor": 3230,
      "\\where": 3231,
      "\\dV": 3232,
      "\\that": 3233,
      "\\doteqdot": 3234,
      "\\vartriangleleft": 3235,
      "ac": 3236,
      "ath": 3237,
      "ix": 3238,
      "rime": 3239,
      "\\inJ": 3240,
      "\\leqr": 3241,
      "\\varepsilo": 3242,
      "\\intdt": 3243,
      "\\Eta": 3244,
      "\\alphak": 3245,
      "\\alphax": 3246,
      "\\mui": 3247,
      "\\mut": 3248,
      "\\partialM": 3249,
      "\\pik": 3250,
      "\\thetai": 3251,
      "\\epsilonab": 3252,
      "\\leqm": 3253,
      "\\lessdot": 3254,
      "\\ske": 3255,
      "\\sumx": 3256,
      "\\intX": 3257,
      "\\pia": 3258,
      "\\taud": 3259,
      "\\timesA": 3260,
      "\\dS": 3261,
      "\\hdash": 3262,
      "\\displaylimits": 3263,
      "\\displaybreak": 3264,
      "\\gtrless": 3265,
      "\\unbold": 3266,
      "\\skew": 3267,
      "\\hdashline": 3268,
      "\\unboldmath": 3269,
      "ach": 3270,
      "group": 3271,
      "\\mathsc": 3272,
      "\\muF": 3273,
      "\\partialP": 3274,
      "\\partialxi": 3275,
      "\\lambdaA": 3276,
      "\\lambday": 3277,
      "\\intB": 3278,
      "\\boxdot": 3279,
      "\\negth": 3280,
      "\\varsubset": 3281,
      "\\bigodot": 3282,
      "square": 3283,
      "within": 3284,
      "\\mathscr": 3285,
      "\\varsubsetn": 3286,
      "ub": 3287,
      "\\lll": 3288,
      "\\omeg": 3289,
      "\\partialb": 3290,
      "\\betaH": 3291,
      "\\sigmai": 3292,
      "\\Deltaz": 3293,
      "\\as": 3294,
      "\\multirow": 3295,
      "\\blacksquare": 3296,
      "bc": 3297,
      "ff": 3298,
      "gn": 3299,
      "prime": 3300,
      "\\cd": 3301,
      "det": 3302,
      "\\each": 3303,
      "dangle": 3304,
      "\\vbox": 3305,
      "\\pix": 3306,
      "\\deltai": 3307,
      "\\dq": 3308,
      "\\toA": 3309,
      "\\underbracket": 3310,
      "inter": 3311,
      "\\Longleftarrow": 3312,
      "\\such": 3313,
      "\\dxdt": 3314,
      "suredangle": 3315,
      "\\measuredangle": 3316,
      "\\\"": 3317,
      "wi": 3318,
      "\\muB": 3319,
      "\\partials": 3320,
      "\\lambdat": 3321,
      "\\thetacos": 3322,
      "\\thetasin": 3323,
      "\\vdotswithin": 3324,
      "\\Mu": 3325,
      "\\'": 3326,
      "fill": 3327,
      "ition": 3328,
      "rhd": 3329,
      "\\muT": 3330,
      "\\sumr": 3331,
      "\\gamman": 3332,
      "\\rhod": 3333,
      "lineskip": 3334,
      "\\leqd": 3335,
      "\\coloneq": 3336,
      "\\atopwithdelims": 3337,
      "\\unrhd": 3338,
      "\\circledcirc": 3339,
      "\\lambdar": 3340,
      "\\index": 3341,
      "Upsilon": 3342,
      "finter": 3343,
      "gtr": 3344,
      "ji": 3345,
      "te": 3346,
      "\\inY": 3347,
      "\\alph": 3348,
      "\\varUpsilon": 3349,
      "\\omegan": 3350,
      "\\Omeg": 3351,
      "\\kapp": 3352,
      "\\prodk": 3353,
      "\\textg": 3354,
      "\\halign": 3355,
      "\\capC": 3356,
      "\\lessgtr": 3357,
      "\\uni": 3358,
      "\\offinter": 3359,
      "\\diagup": 3360,
      "\\offinterlineskip": 3361,
      "zi": 3362,
      "\\mskip": 3363,
      "\\partialn": 3364,
      "\\sums": 3365,
      "\\deltat": 3366,
      "\\Deltap": 3367,
      "\\lambdam": 3368,
      "es": 3369,
      "hin": 3370,
      "rk": 3371,
      "\\leftharpoonup": 3372,
      "\\alphaA": 3373,
      "\\mum": 3374,
      "\\piN": 3375,
      "\\piT": 3376,
      "\\varXi": 3377,
      "\\betai": 3378,
      "\\gammai": 3379,
      "\\rhog": 3380,
      "\\DeltaS": 3381,
      "\\leqc": 3382,
      "\\toS": 3383,
      "ity": 3384,
      "\\boxminus": 3385,
      "\\AB": 3386,
      "cosh": 3387,
      "\\sqrth": 3388,
      "jk": 3389,
      "ju": 3390,
      "ms": 3391,
      "dent": 3392,
      "\\alphau": 3393,
      "\\muk": 3394,
      "\\partialW": 3395,
      "\\vtop": 3396,
      "\\deltag": 3397,
      "\\deltaab": 3398,
      "\\thetak": 3399,
      "\\leqM": 3400,
      "\\toc": 3401,
      "\\dxdy": 3402,
      "\\indent": 3403,
      "wti": 3404,
      "indent": 3405,
      "\\alphad": 3406,
      "\\alphaf": 3407,
      "\\alphat": 3408,
      "\\munu": 3409,
      "\\cdotq": 3410,
      "\\thetaj": 3411,
      "\\xii": 3412,
      "\\DeltaE": 3413,
      "\\bowti": 3414,
      "\\noindent": 3415,
      "\\Vec": 3416,
      "\\dxd": 3417,
      "\\blacktriangle": 3418,
      "\\backsim": 3419,
      "font": 3420,
      "\\bowtie": 3421,
      "ati": 3422,
      "fi": 3423,
      "pi": 3424,
      "plus": 3425,
      "\\inQ": 3426,
      "\\muP": 3427,
      "\\muu": 3428,
      "\\pif": 3429,
      "\\nun": 3430,
      "\\deltaS": 3431,
      "\\deltaq": 3432,
      "\\quadss": 3433,
      "\\taun": 3434,
      "\\psii": 3435,
      "\\timesG": 3436,
      "\\ket": 3437,
      "\\nexists": 3438,
      "\\matrix": 3439,
      "\\precsim": 3440,
      "\\vcenter": 3441,
      "\\backprime": 3442,
      "\\epsilonijk": 3443,
      "\\.": 3444,
      "ic": 3445,
      "\\leftth": 3446,
      "\\inW": 3447,
      "\\crc": 3448,
      "\\alphaT": 3449,
      "\\alphae": 3450,
      "\\mue": 3451,
      "\\partialU": 3452,
      "\\nco": 3453,
      "\\sigmad": 3454,
      "\\quadsin": 3455,
      "\\rhov": 3456,
      "\\ter": 3457,
      "\\DeltaP": 3458,
      "\\leql": 3459,
      "\\loop": 3460,
      "\\texta": 3461,
      "\\ul": 3462,
      "\\capU": 3463,
      "\\capV": 3464,
      "\\xlongrightarrow": 3465,
      "\\sqsubseteq": 3466,
      "reetimes": 3467,
      "\\leftthreetimes": 3468,
      "\\crcr": 3469,
      "\\ncong": 3470,
      "ni": 3471,
      "\\inv": 3472,
      "\\cl": 3473,
      "\\mug": 3474,
      "\\nwarrow": 3475,
      "\\sumN": 3476,
      "\\intA": 3477,
      "\\betaF": 3478,
      "\\deltan": 3479,
      "\\inftyf": 3480,
      "\\inftydx": 3481,
      "\\quadln": 3482,
      "\\rhou": 3483,
      "\\Deltay": 3484,
      "\\Phia": 3485,
      "\\supsetneqq": 3486,
      "\\intab": 3487,
      "wise": 3488,
      "di": 3489,
      "ps": 3490,
      "\\psin": 3491,
      "\\alphaD": 3492,
      "\\mud": 3493,
      "\\partialD": 3494,
      "\\partialE": 3495,
      "\\partialw": 3496,
      "\\pie": 3497,
      "\\sqrtN": 3498,
      "\\betax": 3499,
      "rom": 3500,
      "\\Dh": 3501,
      "\\Deltan": 3502,
      "\\Deltav": 3503,
      "\\nablav": 3504,
      "\\nablax": 3505,
      "\\timesC": 3506,
      "\\toR": 3507,
      "\\ton": 3508,
      "\\diagdown": 3509,
      "ubsuit": 3510,
      "\\ulcorner": 3511,
      "\\clubsuit": 3512,
      "tor": 3513,
      "\\lt": 3514,
      "mark": 3515,
      "\\partialI": 3516,
      "\\partialQ": 3517,
      "\\vss": 3518,
      "\\sumq": 3519,
      "\\cdotx": 3520,
      "\\sqrtd": 3521,
      "\\deltak": 3522,
      "\\omegaC": 3523,
      "\\Deltas": 3524,
      "\\GammaT": 3525,
      "\\chii": 3526,
      "\\at": 3527,
      "\\capH": 3528,
      "\\setcounter": 3529,
      "scii": 3530,
      "\\quadAB": 3531,
      "\\terms": 3532,
      "\\textascii": 3533,
      "kd": 3534,
      "os": 3535,
      "\\rightharpoondown": 3536,
      "\\alphaX": 3537,
      "\\mup": 3538,
      "\\sumd": 3539,
      "\\cdotd": 3540,
      "\\lambdae": 3541,
      "\\gime": 3542,
      "\\pil": 3543,
      "\\betat": 3544,
      "\\sigmax": 3545,
      "\\deltaQ": 3546,
      "\\gammak": 3547,
      "\\quadcos": 3548,
      "\\prodp": 3549,
      "\\capA": 3550,
      "\\spec": 3551,
      "\\argmin": 3552,
      "code": 3553,
      "\\dashrightarrow": 3554,
      "\\varsubsetneqq": 3555,
      "\\unicode": 3556,
      "\\gimel": 3557,
      "Ai": 3558,
      "check": 3559,
      "oin": 3560,
      "phar": 3561,
      "yright": 3562,
      "\\rgroup": 3563,
      "\\rightleftarrow": 3564,
      "\\alphar": 3565,
      "\\alphag": 3566,
      "\\parbox": 3567,
      "\\partialk": 3568,
      "\\sumI": 3569,
      "\\sumf": 3570,
      "\\cdotv": 3571,
      "\\lambdag": 3572,
      "\\lambdau": 3573,
      "\\intt": 3574,
      "\\sqrtp": 3575,
      "\\nua": 3576,
      "\\sigmaX": 3577,
      "\\inftye": 3578,
      "\\rhoc": 3579,
      "\\DeltaB": 3580,
      "\\Deltaf": 3581,
      "\\timesT": 3582,
      "\\Phii": 3583,
      "\\dp": 3584,
      "\\widecheck": 3585,
      "\\geqc": 3586,
      "\\capS": 3587,
      "\\copyright": 3588,
      "ickspace": 3589,
      "\\lgroup": 3590,
      "\\negthickspace": 3591,
      "\\special": 3592,
      "\\rightleftarrows": 3593,
      "hk": 3594,
      "mu": 3595,
      "oalign": 3596,
      "\\lq": 3597,
      "\\leftright": 3598,
      "ther": 3599,
      "\\ooalign": 3600,
      "\\other": 3601,
      "\\alphab": 3602,
      "\\sume": 3603,
      "\\sumv": 3604,
      "\\pic": 3605,
      "\\pid": 3606,
      "\\pis": 3607,
      "\\betaE": 3608,
      "lock": 3609,
      "\\gammal": 3610,
      "\\omegaL": 3611,
      "\\DeltaV": 3612,
      "\\leqT": 3613,
      "\\leqa": 3614,
      "\\timesv": 3615,
      "\\vector": 3616,
      "\\rightarrowfill": 3617,
      "\\toP": 3618,
      "\\Scal": 3619,
      "\\capR": 3620,
      "\\operatornamewith": 3621,
      "ater": 3622,
      "ijk": 3623,
      "\\sumni": 3624,
      "\\normalfont": 3625,
      "\\sqrta": 3626,
      "just": 3627,
      "\\looparrowright": 3628,
      "\\operatornamewithlimits": 3629,
      "RS": 3630,
      "cl": 3631,
      "lar": 3632,
      "wid": 3633,
      "ale": 3634,
      "\\muJ": 3635,
      "\\muR": 3636,
      "\\mur": 3637,
      "\\partialG": 3638,
      "\\lambdav": 3639,
      "\\intV": 3640,
      "\\intu": 3641,
      "\\sqrtk": 3642,
      "\\sqrtx": 3643,
      "\\nug": 3644,
      "\\sigmav": 3645,
      "\\thetaa": 3646,
      "\\thetan": 3647,
      "\\rhon": 3648,
      "\\omegaj": 3649,
      "\\epsiloni": 3650,
      "\\nablaw": 3651,
      "\\cupC": 3652,
      "reater": 3653,
      "stant": 3654,
      "\\Ref": 3655,
      "eff": 3656,
      "\\textgreater": 3657,
      "cA": 3658,
      "put": 3659,
      "pcounter": 3660,
      "val": 3661,
      "\\epsilo": 3662,
      "\\alphas": 3663,
      "\\muj": 3664,
      "\\nparallel": 3665,
      "\\sumg": 3666,
      "\\lambdap": 3667,
      "\\intT": 3668,
      "\\sqrtt": 3669,
      "\\betak": 3670,
      "\\betam": 3671,
      "\\phii": 3672,
      "\\sigmaT": 3673,
      "\\deltaI": 3674,
      "\\deltaf": 3675,
      "\\xij": 3676,
      "\\DeltaL": 3677,
      "\\dotplus": 3678,
      "\\leqK": 3679,
      "\\leqy": 3680,
      "\\timesM": 3681,
      "\\tob": 3682,
      "\\tof": 3683,
      "\\textsubscript": 3684,
      "\\Si": 3685,
      "cefrac": 3686,
      "\\nicefrac": 3687,
      "\\lambdal": 3688,
      "\\leftharpoondown": 3689,
      "ran": 3690,
      "\\pig": 3691,
      "\\sati": 3692,
      "arc": 3693,
      "\\bord": 3694,
      "\\inO": 3695,
      "amm": 3696,
      "ermatrix": 3697,
      "\\ever": 3698,
      "\\muI": 3699,
      "\\muS": 3700,
      "\\muX": 3701,
      "\\partialH": 3702,
      "\\sumh": 3703,
      "\\cdotn": 3704,
      "\\piM": 3705,
      "\\piz": 3706,
      "\\betaa": 3707,
      "\\phid": 3708,
      "\\deltaa": 3709,
      "\\quadlog": 3710,
      "\\psij": 3711,
      "\\Dot": 3712,
      "\\leqp": 3713,
      "\\leqs": 3714,
      "\\timesN": 3715,
      "\\timesX": 3716,
      "\\Omegau": 3717,
      "\\PhiA": 3718,
      "\\toT": 3719,
      "\\textless": 3720,
      "\\capF": 3721,
      "\\xy": 3722,
      "\\span": 3723,
      "\\intdd": 3724,
      "\\quadBC": 3725,
      "\\multiput": 3726,
      "reek": 3727,
      "\\constant": 3728,
      "\\satisf": 3729,
      "\\bordermatrix": 3730,
      "\\every": 3731,
      "AC": 3732,
      "Math": 3733,
      "Operator": 3734,
      "\\id": 3735,
      "as": 3736,
      "act": 3737,
      "ba": 3738,
      "dS": 3739,
      "lare": 3740,
      "og": 3741,
      "old": 3742,
      "vi": 3743,
      "zu": 3744,
      "\\mathnormal": 3745,
      "\\alphaz": 3746,
      "\\muf": 3747,
      "\\partiall": 3748,
      "\\cdotf": 3749,
      "\\intG": 3750,
      "\\integ": 3751,
      "\\piA": 3752,
      "lect": 3753,
      "\\nux": 3754,
      "\\phit": 3755,
      "\\sigman": 3756,
      "\\deltaL": 3757,
      "\\inftyc": 3758,
      "\\omegaa": 3759,
      "\\Dec": 3760,
      "\\DeltaC": 3761,
      "\\mathbbold": 3762,
      "\\timesE": 3763,
      "\\timesF": 3764,
      "\\timesb": 3765,
      "\\toM": 3766,
      "\\SI": 3767,
      "cent": 3768,
      "\\diff": 3769,
      "\\thet": 3770,
      "\\partialtu": 3771,
      "MathOperator": 3772,
      "lareMathOperator": 3773,
      "\\DeclareMathOperator": 3774,
      "age": 3775,
      "kx": 3776,
      "pre": 3777,
      "un": 3778,
      "\\let": 3779,
      "\\indi": 3780,
      "\\alphap": 3781,
      "\\overwithdelims": 3782,
      "\\mus": 3783,
      "\\muab": 3784,
      "\\partialc": 3785,
      "\\sumu": 3786,
      "\\cdotg": 3787,
      "\\cdotu": 3788,
      "\\lambdaS": 3789,
      "\\lambdad": 3790,
      "\\intL": 3791,
      "\\inte": 3792,
      "\\pij": 3793,
      "\\sqrtc": 3794,
      "\\betaX": 3795,
      "\\deltaF": 3796,
      "\\deltam": 3797,
      "\\deltay": 3798,
      "\\gammaa": 3799,
      "\\inftyn": 3800,
      "\\taua": 3801,
      "\\rhoA": 3802,
      "\\DeltaH": 3803,
      "\\Deltak": 3804,
      "\\leqb": 3805,
      "\\timesH": 3806,
      "\\toC": 3807,
      "\\toa": 3808,
      "\\prodn": 3809,
      "\\SO": 3810,
      "\\Sigmai": 3811,
      "ces": 3812,
      "\\capD": 3813,
      "\\footnotemark": 3814,
      "\\gtrdot": 3815,
      "\\alpham": 3816,
      "width": 3817,
      "\\indices": 3818,
      "\\ver": 3819,
      "dW": 3820,
      "em": 3821,
      "\\rh": 3822,
      "\\pa": 3823,
      "mation": 3824,
      "\\sgn": 3825,
      "mesi": 3826,
      "\\mathds": 3827,
      "\\alphadx": 3828,
      "\\muL": 3829,
      "\\muc": 3830,
      "\\muy": 3831,
      "\\partialR": 3832,
      "\\sumy": 3833,
      "\\lambdaR": 3834,
      "\\gt": 3835,
      "\\pip": 3836,
      "\\vartriangleright": 3837,
      "\\varfi": 3838,
      "\\timesi": 3839,
      "\\betaA": 3840,
      "\\betae": 3841,
      "\\betah": 3842,
      "\\betadx": 3843,
      "\\nuR": 3844,
      "\\deltaj": 3845,
      "\\bigtimes": 3846,
      "\\gammaj": 3847,
      "\\gammaz": 3848,
      "\\Phin": 3849,
      "\\tauk": 3850,
      "\\tran": 3851,
      "\\DeltaQ": 3852,
      "\\Deltam": 3853,
      "\\nablag": 3854,
      "\\timesr": 3855,
      "\\dA": 3856,
      "\\Lambdak": 3857,
      "\\toU": 3858,
      "\\toz": 3859,
      "\\hss": 3860,
      "\\capN": 3861,
      "\\ii": 3862,
      "\\veebar": 3863,
      "\\join": 3864,
      "sinh": 3865,
      "\\protectu": 3866,
      "\\dvol": 3867,
      "\\fboxsep": 3868,
      "\\quadexp": 3869,
      "\\above": 3870,
      "\\dasharrow": 3871,
      "\\timesSU": 3872,
      "\\intMd": 3873,
      "\\joinrel": 3874,
      "CD": 3875,
      "ble": 3876,
      "dz": 3877,
      "ket": 3878,
      "\\rp": 3879,
      "\\sym": 3880,
      "\\mix": 3881,
      "\\alphac": 3882,
      "\\partialm": 3883,
      "\\sumb": 3884,
      "\\sumt": 3885,
      "\\sumip": 3886,
      "\\lambdaF": 3887,
      "\\intp": 3888,
      "\\piv": 3889,
      "\\piin": 3890,
      "\\sqrtr": 3891,
      "\\nub": 3892,
      "\\nuk": 3893,
      "\\num": 3894,
      "\\phia": 3895,
      "\\sigmag": 3896,
      "\\deltau": 3897,
      "\\gammag": 3898,
      "\\tauX": 3899,
      "\\taui": 3900,
      "\\etai": 3901,
      "\\epsilonn": 3902,
      "\\nablai": 3903,
      "\\timesV": 3904,
      "\\timesY": 3905,
      "\\timesd": 3906,
      "\\dl": 3907,
      "\\toG": 3908,
      "\\toV": 3909,
      "\\toX": 3910,
      "\\geqn": 3911,
      "\\subsetM": 3912,
      "\\colorbox": 3913,
      "\\jot": 3914,
      "\\argmax": 3915,
      "\\hookleftarrow": 3916,
      "ate": 3917,
      "\\rhot": 3918,
      "\\mixes": 3919,
      "kl": 3920,
      "pq": 3921,
      "\\pma": 3922,
      "\\mathlar": 3923,
      "\\el": 3924,
      "\\alphaB": 3925,
      "\\alphaN": 3926,
      "\\alphaQ": 3927,
      "\\alphah": 3928,
      "\\alphaq": 3929,
      "\\muU": 3930,
      "\\muq": 3931,
      "\\muz": 3932,
      "\\partialh": 3933,
      "\\npre": 3934,
      "\\lambdah": 3935,
      "\\intP": 3936,
      "\\intv": 3937,
      "\\sqrtq": 3938,
      "\\sqrtdet": 3939,
      "\\nuD": 3940,
      "\\nuJ": 3941,
      "\\nup": 3942,
      "\\deltaB": 3943,
      "\\deltaH": 3944,
      "\\deltaX": 3945,
      "\\gammam": 3946,
      "\\gammat": 3947,
      "\\taue": 3948,
      "linebreak": 3949,
      "\\epsilonf": 3950,
      "\\epsilont": 3951,
      "\\DeltaF": 3952,
      "\\DeltaO": 3953,
      "\\DeltaU": 3954,
      "\\leqe": 3955,
      "\\Gammak": 3956,
      "\\timese": 3957,
      "\\toy": 3958,
      "\\usep": 3959,
      "\\Sigmad": 3960,
      "\\underleftarrow": 3961,
      "\\add": 3962,
      "\\capI": 3963,
      "\\capT": 3964,
      "\\capX": 3965,
      "\\Pii": 3966,
      "lds": 3967,
      "\\supp": 3968,
      "ackage": 3969,
      "\\lessapprox": 3970,
      "\\nolinebreak": 3971,
      "\\leftrightarrows": 3972,
      "\\Ar": 3973,
      "\\quadAC": 3974,
      "\\Kos": 3975,
      "\\beth": 3976,
      "\\iji": 3977,
      "\\DeltaAO": 3978,
      "circum": 3979,
      "\\negthinspace": 3980,
      "\\textasciicircum": 3981,
      "zul": 3982,
      "\\verb": 3983,
      "\\symbol": 3984,
      "\\mathlarger": 3985,
      "\\usepackage": 3986,
      "\\Koszul": 3987,
      "Ci": 3988,
      "Fi": 3989,
      "\\ide": 3990,
      "eX": 3991,
      "xn": 3992,
      "\\rate": 3993,
      "rac": 3994,
      "\\case": 3995,
      "\\alphaP": 3996,
      "\\alphay": 3997,
      "\\muC": 3998,
      "\\partialC": 3999,
      "\\sumz": 4000,
      "\\lambdaz": 4001,
      "\\piy": 4002,
      "\\sqrtM": 4003,
      "\\betaj": 4004,
      "\\betay": 4005,
      "\\sigmaF": 4006,
      "\\sigmak": 4007,
      "\\gammaij": 4008,
      "\\thetab": 4009,
      "\\inftyP": 4010,
      "\\quadtan": 4011,
      "\\quadtr": 4012,
      "\\rhox": 4013,
      "\\omegac": 4014,
      "\\psip": 4015,
      "\\tv": 4016,
      "\\etak": 4017,
      "\\DeltaG": 4018,
      "\\DeltaM": 4019,
      "\\Deltag": 4020,
      "\\dX": 4021,
      "\\dk": 4022,
      "ideon": 4023,
      "\\toB": 4024,
      "\\toF": 4025,
      "\\toH": 4026,
      "\\toj": 4027,
      "\\geqt": 4028,
      "ormation": 4029,
      "\\fix": 4030,
      "\\capY": 4031,
      "\\cupT": 4032,
      "\\divideon": 4033,
      "sformation": 4034,
      "\\intdp": 4035,
      "\\Cup": 4036,
      "\\varpropto": 4037,
      "\\YB": 4038,
      "\\piik": 4039,
      "\\linebreak": 4040,
      "\\compact": 4041,
      "\\intDA": 4042,
      "\\scshape": 4043,
      "\\timesSO": 4044,
      "\\adjust": 4045,
      "\\varsubsetneq": 4046,
      "\\blacktriangledown": 4047,
      "\\otherwise": 4048,
      "\\satisfies": 4049,
      "\\integer": 4050,
      "\\transformation": 4051,
      "\\else": 4052,
      "\\divideontimes": 4053,
      "\\adjustlimits": 4054,
      "II": 4055,
      "bi": 4056,
      "ddot": 4057,
      "fd": 4058,
      "qi": 4059,
      "rs": 4060,
      "\\rang": 4061,
      "rangle": 4062,
      "\\oval": 4063,
      "\\mn": 4064,
      "deg": 4065,
      "\\alphaV": 4066,
      "\\muH": 4067,
      "\\muV": 4068,
      "\\muv": 4069,
      "\\cdotA": 4070,
      "\\cdotP": 4071,
      "\\cdotb": 4072,
      "\\cdotm": 4073,
      "\\lambdaB": 4074,
      "\\gamm": 4075,
      "\\piu": 4076,
      "\\betaT": 4077,
      "\\betan": 4078,
      "\\betap": 4079,
      "\\betaq": 4080,
      "\\nuT": 4081,
      "\\nue": 4082,
      "\\nut": 4083,
      "\\sigmaS": 4084,
      "\\deltaE": 4085,
      "\\deltav": 4086,
      "\\gammaA": 4087,
      "\\gammad": 4088,
      "\\gammap": 4089,
      "\\thetaW": 4090,
      "\\thetar": 4091,
      "\\thetat": 4092,
      "\\inftyt": 4093,
      "\\quado": 4094,
      "\\quadarc": 4095,
      "\\rhoi": 4096,
      "\\omegad": 4097,
      "\\omegai": 4098,
      "cale": 4099,
      "\\varph": 4100,
      "\\epsilonk": 4101,
      "\\epsilonu": 4102,
      "\\DeltaD": 4103,
      "\\leqL": 4104,
      "\\leqw": 4105,
      "\\nabl": 4106,
      "\\timesD": 4107,
      "\\timesZ": 4108,
      "\\Omegai": 4109,
      "\\Phik": 4110,
      "\\La": 4111,
      "\\chij": 4112,
      "\\zb": 4113,
      "\\tos": 4114,
      "\\geqa": 4115,
      "\\geqk": 4116,
      "\\lneq": 4117,
      "\\capL": 4118,
      "\\capM": 4119,
      "\\neqn": 4120,
      "\\xin": 4121,
      "\\linewidth": 4122,
      "\\ddddot": 4123,
      "\\leftrightharpoons": 4124,
      "\\epsilond": 4125,
      "NP": 4126,
      "Vi": 4127,
      "bk": 4128,
      "cs": 4129,
      "neq": 4130,
      "ous": 4131,
      "under": 4132,
      "xt": 4133,
      "yx": 4134,
      "\\la": 4135,
      "\\lam": 4136,
      "\\rrangle": 4137,
      "\\lequ": 4138,
      "\\scale": 4139,
      "\\oiint": 4140,
      "\\ord": 4141,
      "ered": 4142,
      "\\mac": 4143,
      "\\alphaL": 4144,
      "\\alphav": 4145,
      "\\muN": 4146,
      "\\partialN": 4147,
      "\\partialZ": 4148,
      "\\partiale": 4149,
      "\\cdotX": 4150,
      "\\lambdas": 4151,
      "\\intE": 4152,
      "\\intF": 4153,
      "\\piI": 4154,
      "\\piL": 4155,
      "\\piq": 4156,
      "\\sqrtV": 4157,
      "\\betaR": 4158,
      "\\betad": 4159,
      "\\del": 4160,
      "\\nui": 4161,
      "\\sigmas": 4162,
      "\\sigmat": 4163,
      "\\deltaW": 4164,
      "\\tauI": 4165,
      "\\rhoa": 4166,
      "\\rhoe": 4167,
      "\\omegaz": 4168,
      "\\psid": 4169,
      "\\etaa": 4170,
      "\\dotfill": 4171,
      "\\nablah": 4172,
      "\\nablap": 4173,
      "\\timesI": 4174,
      "\\timesP": 4175,
      "\\timesm": 4176,
      "\\OmegaD": 4177,
      "\\Omegad": 4178,
      "\\zetai": 4179,
      "\\toK": 4180,
      "\\toY": 4181,
      "\\geqr": 4182,
      "\\fi": 4183,
      "\\floor": 4184,
      "\\cupA": 4185,
      "\\cupE": 4186,
      "ntly": 4187,
      "sec": 4188,
      "\\llangle": 4189,
      "\\xhook": 4190,
      "\\item": 4191,
      "\\break": 4192,
      "color": 4193,
      "iei": 4194,
      "\\Var": 4195,
      "\\CD": 4196,
      "\\quadabc": 4197,
      "\\partialxj": 4198,
      "\\quadMR": 4199,
      "\\inSU": 4200,
      "\\quadOB": 4201,
      "\\epsilonabc": 4202,
      "\\omegar": 4203,
      "\\sumNi": 4204,
      "\\scalebox": 4205,
      "\\order": 4206,
      "\\xhookrightarrow": 4207,
      "Ad": 4208,
      "En": 4209,
      "OP": 4210,
      "\\+": 4211,
      "bcolsep": 4212,
      "ci": 4213,
      "hig": 4214,
      "mma": 4215,
      "ty": 4216,
      "uous": 4217,
      "vance": 4218,
      "\\lea": 4219,
      "\\pq": 4220,
      "tation": 4221,
      "inition": 4222,
      "inuous": 4223,
      "\\sign": 4224,
      "\\ste": 4225,
      "derac": 4226,
      "\\muE": 4227,
      "\\vp": 4228,
      "\\lambdaN": 4229,
      "\\gneq": 4230,
      "\\betaB": 4231,
      "ndition": 4232,
      "\\nud": 4233,
      "\\phiu": 4234,
      "\\sigmaa": 4235,
      "\\sigmae": 4236,
      "\\sigmau": 4237,
      "\\sigmaij": 4238,
      "\\deltal": 4239,
      "\\gammas": 4240,
      "\\thetax": 4241,
      "\\inftyx": 4242,
      "\\quadco": 4243,
      "\\endline": 4244,
      "\\tabcolsep": 4245,
      "\\tauF": 4246,
      "\\tauj": 4247,
      "\\rhos": 4248,
      "\\omegax": 4249,
      "\\xia": 4250,
      "\\xit": 4251,
      "\\te": 4252,
      "\\etan": 4253,
      "\\Deltal": 4254,
      "\\nablaQ": 4255,
      "\\nablaV": 4256,
      "\\nablab": 4257,
      "\\timesg": 4258,
      "\\Phib": 4259,
      "\\dg": 4260,
      "\\dm": 4261,
      "\\toZ": 4262,
      "\\prodip": 4263,
      "\\cont": 4264,
      "\\condition": 4265,
      "\\Sigmak": 4266,
      "\\neqk": 4267,
      "\\Ric": 4268,
      "\\XB": 4269,
      "\\xb": 4270,
      "\\jhk": 4271,
      "vev": 4272,
      "\\Lemma": 4273,
      "\\braket": 4274,
      "\\intdz": 4275,
      "\\Ha": 4276,
      "\\Qc": 4277,
      "\\underac": 4278,
      "\\centering": 4279,
      "\\relation": 4280,
      "\\ijk": 4281,
      "erent": 4282,
      "\\advance": 4283,
      "athered": 4284,
      "\\alphal": 4285,
      "\\Omegar": 4286,
      "\\ketbra": 4287,
      "\\dprod": 4288,
      "\\different": 4289,
      "\\SOS": 4290,
      "\\nprec": 4291,
      "\\fixed": 4292,
      "\\stepcounter": 4293,
      "\\continuous": 4294,
      "\\underaccent": 4295,
      "Ak": 4296,
      "Di": 4297,
      "IA": 4298,
      "Na": 4299,
      "Ti": 4300,
      "ZX": 4301,
      "aj": 4302,
      "df": 4303,
      "dq": 4304,
      "dxi": 4305,
      "ik": 4306,
      "is": 4307,
      "ject": 4308,
      "mo": 4309,
      "mod": 4310,
      "nz": 4311,
      "ner": 4312,
      "seta": 4313,
      "\\pmat": 4314,
      "tal": 4315,
      "alse": 4316,
      "artial": 4317,
      "thick": 4318,
      "ero": 4319,
      "\\mi": 4320,
      "sible": 4321,
      "\\muW": 4322,
      "\\muh": 4323,
      "\\nle": 4324,
      "\\sumw": 4325,
      "\\cdotB": 4326,
      "\\cdotH": 4327,
      "\\lambdaM": 4328,
      "\\lambdaV": 4329,
      "\\lambdab": 4330,
      "\\intI": 4331,
      "\\intr": 4332,
      "\\piij": 4333,
      "\\sqrtE": 4334,
      "\\betaD": 4335,
      "\\betac": 4336,
      "\\betav": 4337,
      "\\nuy": 4338,
      "\\phij": 4339,
      "\\sigmaP": 4340,
      "\\sigmay": 4341,
      "\\deltaD": 4342,
      "\\deltae": 4343,
      "\\gammax": 4344,
      "\\inftyan": 4345,
      "\\taum": 4346,
      "\\taup": 4347,
      "\\rhoU": 4348,
      "\\omegaT": 4349,
      "\\omegaij": 4350,
      "\\xiA": 4351,
      "\\xiR": 4352,
      "\\etar": 4353,
      "\\epsilonE": 4354,
      "\\epsilonx": 4355,
      "\\Deltaq": 4356,
      "\\leqP": 4357,
      "\\leqv": 4358,
      "\\leqexp": 4359,
      "abil": 4360,
      "\\nablaa": 4361,
      "\\Greek": 4362,
      "\\timesK": 4363,
      "\\timesc": 4364,
      "\\timesq": 4365,
      "\\der": 4366,
      "\\dale": 4367,
      "ste": 4368,
      "\\toE": 4369,
      "\\toW": 4370,
      "\\toe": 4371,
      "\\toi": 4372,
      "\\tom": 4373,
      "rclock": 4374,
      "\\circeq": 4375,
      "\\geqM": 4376,
      "\\geqm": 4377,
      "\\urcorner": 4378,
      "\\capG": 4379,
      "\\form": 4380,
      "\\subsetE": 4381,
      "\\ointct": 4382,
      "\\proda": 4383,
      "\\xc": 4384,
      "\\degree": 4385,
      "\\Leftarrow": 4386,
      "tanh": 4387,
      "\\quadab": 4388,
      "\\partialxn": 4389,
      "\\quadSp": 4390,
      "\\quaddx": 4391,
      "\\quadRM": 4392,
      "\\quadRe": 4393,
      "ness": 4394,
      "\\shortmid": 4395,
      "\\quadIm": 4396,
      "\\intDB": 4397,
      "\\inAP": 4398,
      "\\sqrtgx": 4399,
      "\\intfd": 4400,
      "\\omegam": 4401,
      "\\cdota": 4402,
      "\\kappap": 4403,
      "\\intabf": 4404,
      "\\textasciitilde": 4405,
      "\\temp": 4406,
      "thickness": 4407,
      "\\nleq": 4408,
      "\\Greekmath": 4409,
      "\\daleth": 4410,
      "rclockwise": 4411,
      "\\ointctrclockwise": 4412,
      "AA": 4413,
      "Dx": 4414,
      "Fa": 4415,
      "RT": 4416,
      "Re": 4417,
      "SS": 4418,
      "Si": 4419,
      "XY": 4420,
      "\\�": 4421,
      "babil": 4422,
      "cb": 4423,
      "fam": 4424,
      "mode": 4425,
      "phi": 4426,
      "ple": 4427,
      "unt": 4428,
      "uct": 4429,
      "xk": 4430,
      "igh": 4431,
      "\\rota": 4432,
      "\\pd": 4433,
      "\\ph": 4434,
      "\\pme": 4435,
      "inv": 4436,
      "als": 4437,
      "\\ink": 4438,
      "\\osc": 4439,
      "\\eps": 4440,
      "\\alphaC": 4441,
      "\\alphaI": 4442,
      "\\alphacos": 4443,
      "\\muM": 4444,
      "\\vol": 4445,
      "\\vac": 4446,
      "\\sumA": 4447,
      "\\sumX": 4448,
      "\\summi": 4449,
      "\\cdotk": 4450,
      "\\cdott": 4451,
      "\\lambdaH": 4452,
      "\\lambdaq": 4453,
      "\\inty": 4454,
      "\\intz": 4455,
      "\\piF": 4456,
      "\\piK": 4457,
      "\\sqrtD": 4458,
      "\\sqrtL": 4459,
      "\\sqrtm": 4460,
      "\\betaS": 4461,
      "\\betag": 4462,
      "\\nuP": 4463,
      "\\nuS": 4464,
      "\\nus": 4465,
      "\\phix": 4466,
      "\\phicos": 4467,
      "\\sigmaj": 4468,
      "\\sigmam": 4469,
      "\\deltaG": 4470,
      "\\deltap": 4471,
      "\\deltar": 4472,
      "\\gammaF": 4473,
      "\\gammaf": 4474,
      "\\gammav": 4475,
      "\\thetaR": 4476,
      "\\inftyp": 4477,
      "\\inftydt": 4478,
      "\\quadlim": 4479,
      "\\quaddet": 4480,
      "\\taug": 4481,
      "\\taut": 4482,
      "\\rhoD": 4483,
      "\\omegaW": 4484,
      "\\omegaab": 4485,
      "\\xim": 4486,
      "\\etaab": 4487,
      "linear": 4488,
      "\\DeltaW": 4489,
      "\\Deltah": 4490,
      "\\leqB": 4491,
      "\\leqI": 4492,
      "\\leqX": 4493,
      "\\leqf": 4494,
      "\\nablaB": 4495,
      "\\nablaU": 4496,
      "\\timesL": 4497,
      "\\timesp": 4498,
      "\\OmegaJ": 4499,
      "\\dn": 4500,
      "\\chif": 4501,
      "\\bfv": 4502,
      "dotseq": 4503,
      "\\toD": 4504,
      "\\toN": 4505,
      "\\toh": 4506,
      "\\textdeg": 4507,
      "\\Psiq": 4508,
      "\\geqC": 4509,
      "\\geqT": 4510,
      "\\geqj": 4511,
      "\\ubar": 4512,
      "gen": 4513,
      "\\equivale": 4514,
      "\\capQ": 4515,
      "\\To": 4516,
      "\\infin": 4517,
      "\\Rightarrowx": 4518,
      "\\notinS": 4519,
      "ily": 4520,
      "ingdotseq": 4521,
      "one": 4522,
      "\\reflect": 4523,
      "\\refste": 4524,
      "\\resp": 4525,
      "\\quadAM": 4526,
      "\\Nu": 4527,
      "\\raiseta": 4528,
      "\\quadPm": 4529,
      "\\mathchar": 4530,
      "\\abc": 4531,
      "\\quadhv": 4532,
      "\\linethickness": 4533,
      "ence": 4534,
      "\\inRn": 4535,
      "\\twoheadleftarrow": 4536,
      "\\sqrtgd": 4537,
      "\\intfrom": 4538,
      "\\partialqi": 4539,
      "tebox": 4540,
      "\\textgreek": 4541,
      "ative": 4542,
      "\\sigmadW": 4543,
      "\\quadsinx": 4544,
      "\\GammaTR": 4545,
      "kdk": 4546,
      "\\leftrightsquigarrow": 4547,
      "\\timesid": 4548,
      "\\addto": 4549,
      "\\deriv": 4550,
      "bability": 4551,
      "family": 4552,
      "\\rotatebox": 4553,
      "\\textdegree": 4554,
      "\\equivalently": 4555,
      "\\reflectbox": 4556,
      "\\refstepcounter": 4557,
      "\\raisetag": 4558,
      "In": 4559,
      "Ni": 4560,
      "PS": 4561,
      "TT": 4562,
      "UV": 4563,
      "\\da": 4564,
      "aa": 4565,
      "bn": 4566,
      "ca": 4567,
      "ilinear": 4568,
      "kT": 4569,
      "kk": 4570,
      "kip": 4571,
      "li": 4572,
      "lit": 4573,
      "mus": 4574,
      "ntit": 4575,
      "oma": 4576,
      "out": 4577,
      "ume": 4578,
      "za": 4579,
      "rad": 4580,
      "\\si": 4581,
      "\\sy": 4582,
      "arg": 4583,
      "\\bd": 4584,
      "\\by": 4585,
      "\\cb": 4586,
      "\\cut": 4587,
      "\\ess": 4588,
      "\\alphaR": 4589,
      "\\alphasin": 4590,
      "\\partialJ": 4591,
      "\\vad": 4592,
      "\\sumE": 4593,
      "\\cdotK": 4594,
      "\\cdotr": 4595,
      "\\lambdaE": 4596,
      "\\lambdaL": 4597,
      "\\lambdaT": 4598,
      "\\lambdac": 4599,
      "\\intU": 4600,
      "\\intc": 4601,
      "\\ga": 4602,
      "\\gf": 4603,
      "\\pib": 4604,
      "\\sqrtA": 4605,
      "\\sqrtG": 4606,
      "\\sqrte": 4607,
      "\\betaP": 4608,
      "\\betar": 4609,
      "\\betas": 4610,
      "\\betau": 4611,
      "\\betacos": 4612,
      "quation": 4613,
      "\\nuq": 4614,
      "\\phib": 4615,
      "\\sigmaA": 4616,
      "\\sigmal": 4617,
      "\\deltaJ": 4618,
      "\\deltaY": 4619,
      "\\thetaL": 4620,
      "\\thetae": 4621,
      "\\thetag": 4622,
      "\\thetam": 4623,
      "\\inftyT": 4624,
      "\\inftyr": 4625,
      "\\inftyak": 4626,
      "\\quadsup": 4627,
      "\\rhoH": 4628,
      "\\rhob": 4629,
      "\\omegap": 4630,
      "\\psiA": 4631,
      "\\psiR": 4632,
      "\\psik": 4633,
      "\\psiexp": 4634,
      "\\xiT": 4635,
      "\\xip": 4636,
      "\\etad": 4637,
      "\\etaj": 4638,
      "\\epsilonC": 4639,
      "\\epsilonl": 4640,
      "\\epsilonm": 4641,
      "\\DeltaX": 4642,
      "\\Deltaa": 4643,
      "\\Deltar": 4644,
      "\\wx": 4645,
      "abc": 4646,
      "\\nablaH": 4647,
      "\\nablaW": 4648,
      "\\Gammac": 4649,
      "\\Gammai": 4650,
      "\\Op": 4651,
      "\\Omegak": 4652,
      "\\dH": 4653,
      "\\dw": 4654,
      "\\down": 4655,
      "\\chia": 4656,
      "\\pmj": 4657,
      "\\vareps": 4658,
      "\\kappat": 4659,
      "\\tor": 4660,
      "\\tou": 4661,
      "\\prodm": 4662,
      "\\Psip": 4663,
      "\\geqd": 4664,
      "\\geqs": 4665,
      "\\qx": 4666,
      "\\qed": 4667,
      "\\TM": 4668,
      "\\subsetO": 4669,
      "\\neqm": 4670,
      "\\cupN": 4671,
      "\\cupS": 4672,
      "\\dett": 4673,
      "\\XY": 4674,
      "hen": 4675,
      "\\probability": 4676,
      "\\jk": 4677,
      "phy": 4678,
      "\\iffalse": 4679,
      "\\split": 4680,
      "\\Ax": 4681,
      "\\precapprox": 4682,
      "\\quadxy": 4683,
      "\\intds": 4684,
      "\\sesqu": 4685,
      "\\select": 4686,
      "\\quadaR": 4687,
      "\\QB": 4688,
      "\\sumij": 4689,
      "\\holds": 4690,
      "\\ZB": 4691,
      "\\quadPQ": 4692,
      "dxj": 4693,
      "\\definition": 4694,
      "\\thickapprox": 4695,
      "\\partialif": 4696,
      "\\muna": 4697,
      "\\intdtd": 4698,
      "\\iiiint": 4699,
      "\\identit": 4700,
      "\\cases": 4701,
      "\\leavev": 4702,
      "\\conditions": 4703,
      "\\addtolength": 4704,
      "\\derivative": 4705,
      "ilinearity": 4706,
      "muskip": 4707,
      "\\cutset": 4708,
      "\\vadjust": 4709,
      "\\splitfrac": 4710,
      "\\sesquilinearity": 4711,
      "\\identity": 4712,
      "\\leavevmode": 4713,
      "Ae": 4714,
      "Af": 4715,
      "Bi": 4716,
      "CA": 4717,
      "DB": 4718,
      "DC": 4719,
      "Fe": 4720,
      "LC": 4721,
      "MM": 4722,
      "MN": 4723,
      "Mv": 4724,
      "SO": 4725,
      "ade": 4726,
      "cm": 4727,
      "dB": 4728,
      "dv": 4729,
      "dge": 4730,
      "epsilon": 4731,
      "fk": 4732,
      "jj": 4733,
      "lu": 4734,
      "lambda": 4735,
      "na": 4736,
      "opt": 4737,
      "xy": 4738,
      "zk": 4739,
      "\\ra": 4740,
      "\\ps": 4741,
      "\\she": 4742,
      "tive": 4743,
      "\\ins": 4744,
      "\\inti": 4745,
      "\\ch": 4746,
      "\\alphaF": 4747,
      "\\alphaG": 4748,
      "\\alphaM": 4749,
      "\\alphaS": 4750,
      "\\alphaopt": 4751,
      "\\muG": 4752,
      "\\muZ": 4753,
      "\\partialY": 4754,
      "\\nrightarrow": 4755,
      "\\vb": 4756,
      "\\sumP": 4757,
      "\\sumR": 4758,
      "\\cdoty": 4759,
      "\\lambdaD": 4760,
      "\\lambdaW": 4761,
      "\\lambdaY": 4762,
      "\\intK": 4763,
      "\\intst": 4764,
      "\\piH": 4765,
      "\\piS": 4766,
      "\\sqrtR": 4767,
      "\\sqrtz": 4768,
      "\\betaL": 4769,
      "\\betaU": 4770,
      "\\betaf": 4771,
      "\\nuz": 4772,
      "\\nuab": 4773,
      "\\phie": 4774,
      "\\phif": 4775,
      "\\phisin": 4776,
      "\\sigmaH": 4777,
      "\\sigmaN": 4778,
      "\\deltas": 4779,
      "\\deltaAB": 4780,
      "\\deltajk": 4781,
      "\\bigbox": 4782,
      "\\gammaB": 4783,
      "\\thetaK": 4784,
      "\\thetac": 4785,
      "\\thetaf": 4786,
      "\\thetal": 4787,
      "\\thetaz": 4788,
      "\\inftyS": 4789,
      "\\inftyg": 4790,
      "\\inftylim": 4791,
      "\\quadsp": 4792,
      "\\quadmin": 4793,
      "\\tauV": 4794,
      "\\tauij": 4795,
      "\\rhoT": 4796,
      "\\rhoV": 4797,
      "\\rhoh": 4798,
      "\\rhok": 4799,
      "\\rhop": 4800,
      "\\omegah": 4801,
      "\\omegau": 4802,
      "\\baru": 4803,
      "\\etaR": 4804,
      "\\Deltab": 4805,
      "\\Deltaw": 4806,
      "\\leqS": 4807,
      "\\leqh": 4808,
      "\\leqz": 4809,
      "\\nablaP": 4810,
      "\\nablay": 4811,
      "\\Gammaa": 4812,
      "\\timesa": 4813,
      "\\timesexp": 4814,
      "\\mathbfcal": 4815,
      "\\db": 4816,
      "\\dMv": 4817,
      "\\chir": 4818,
      "\\pmn": 4819,
      "\\Lambdan": 4820,
      "\\kappaA": 4821,
      "\\local": 4822,
      "\\toq": 4823,
      "\\prodl": 4824,
      "\\prodv": 4825,
      "\\textvi": 4826,
      "\\PsiD": 4827,
      "\\count": 4828,
      "\\geqN": 4829,
      "\\Sigmaj": 4830,
      "\\Sigman": 4831,
      "\\Sigmax": 4832,
      "\\lnf": 4833,
      "\\fie": 4834,
      "\\capK": 4835,
      "\\capZ": 4836,
      "\\capf": 4837,
      "\\font": 4838,
      "\\TeX": 4839,
      "\\subsetV": 4840,
      "idx": 4841,
      "\\neqP": 4842,
      "\\cupV": 4843,
      "\\cupY": 4844,
      "iln": 4845,
      "\\intdy": 4846,
      "\\quadAx": 4847,
      "\\dsum": 4848,
      "\\quadFd": 4849,
      "\\quadba": 4850,
      "\\quadhr": 4851,
      "\\Diamondsuit": 4852,
      "\\curlywedge": 4853,
      "\\sumai": 4854,
      "\\intax": 4855,
      "\\intSn": 4856,
      "\\omegaks": 4857,
      "\\cdoth": 4858,
      "\\kappab": 4859,
      "\\sqrthd": 4860,
      "\\lamda": 4861,
      "siblespace": 4862,
      "\\selectfont": 4863,
      "\\textvisiblespace": 4864,
      "AT": 4865,
      "Av": 4866,
      "BV": 4867,
      "CC": 4868,
      "DA": 4869,
      "Hi": 4870,
      "IJ": 4871,
      "La": 4872,
      "MP": 4873,
      "PO": 4874,
      "Pi": 4875,
      "ST": 4876,
      "UU": 4877,
      "ax": 4878,
      "bd": 4879,
      "bs": 4880,
      "du": 4881,
      "ej": 4882,
      "gl": 4883,
      "ir": 4884,
      "jp": 4885,
      "kB": 4886,
      "nh": 4887,
      "no": 4888,
      "nal": 4889,
      "of": 4890,
      "scri": 4891,
      "sum": 4892,
      "ter": 4893,
      "ues": 4894,
      "xj": 4895,
      "xx": 4896,
      "\\ran": 4897,
      "\\ris": 4898,
      "\\righ": 4899,
      "\\pmatrix": 4900,
      "\\phin": 4901,
      "tau": 4902,
      "alf": 4903,
      "alog": 4904,
      "\\sfrac": 4905,
      "\\bb": 4906,
      "\\ine": 4907,
      "\\inx": 4908,
      "\\ome": 4909,
      "\\own": 4910,
      "\\char": 4911,
      "mer": 4912,
      "hij": 4913,
      "\\mathac": 4914,
      "\\exist": 4915,
      "\\ext": 4916,
      "\\edge": 4917,
      "\\overbracket": 4918,
      "\\muK": 4919,
      "\\muQ": 4920,
      "\\muxi": 4921,
      "\\partialti": 4922,
      "\\nsim": 4923,
      "\\sumJ": 4924,
      "\\sumS": 4925,
      "\\sumT": 4926,
      "\\sumY": 4927,
      "\\sumZ": 4928,
      "\\sumc": 4929,
      "\\sumin": 4930,
      "\\cdotC": 4931,
      "\\cdotD": 4932,
      "\\cdotE": 4933,
      "\\cdotG": 4934,
      "\\lambdaP": 4935,
      "\\lambdaX": 4936,
      "\\lambdaw": 4937,
      "\\intJ": 4938,
      "\\intQ": 4939,
      "\\intY": 4940,
      "\\ints": 4941,
      "\\piC": 4942,
      "\\piD": 4943,
      "\\piQ": 4944,
      "\\pih": 4945,
      "\\piln": 4946,
      "\\sqrtB": 4947,
      "\\sqrts": 4948,
      "les": 4949,
      "\\betaI": 4950,
      "\\betaM": 4951,
      "\\betaV": 4952,
      "\\nuG": 4953,
      "\\nuL": 4954,
      "\\nuV": 4955,
      "\\nuf": 4956,
      "\\nuh": 4957,
      "\\nuj": 4958,
      "\\nuij": 4959,
      "\\phiw": 4960,
      "\\sigmaB": 4961,
      "\\sigmar": 4962,
      "\\deltaN": 4963,
      "\\deltaji": 4964,
      "\\gammaT": 4965,
      "\\gammaX": 4966,
      "\\gammab": 4967,
      "\\gammah": 4968,
      "\\gammar": 4969,
      "\\gammaab": 4970,
      "\\thetaX": 4971,
      "\\thetap": 4972,
      "\\inftyF": 4973,
      "\\inftygn": 4974,
      "\\quadmax": 4975,
      "\\PD": 4976,
      "\\tauA": 4977,
      "\\tauD": 4978,
      "\\tauH": 4979,
      "\\taus": 4980,
      "\\taux": 4981,
      "\\rhom": 4982,
      "\\rhow": 4983,
      "\\omegaK": 4984,
      "\\omegaR": 4985,
      "\\omegaip": 4986,
      "\\psia": 4987,
      "\\psif": 4988,
      "\\psim": 4989,
      "\\psiij": 4990,
      "\\xib": 4991,
      "\\xiy": 4992,
      "\\barwedge": 4993,
      "\\etaB": 4994,
      "\\etaij": 4995,
      "\\Bra": 4996,
      "\\BRS": 4997,
      "\\epsilonp": 4998,
      "\\epsilonv": 4999,
      "\\epsilonmn": 5000,
      "\\Det": 5001,
      "\\Del": 5002,
      "\\DeltaI": 5003,
      "\\DeltaK": 5004,
      "\\DeltaR": 5005,
      "\\Deltai": 5006,
      "\\Deltaj": 5007,
      "\\leqE": 5008,
      "\\leqR": 5009,
      "\\leqg": 5010,
      "\\leqxi": 5011,
      "\\wed": 5012,
      "\\nablaF": 5013,
      "\\nablaL": 5014,
      "\\nablaz": 5015,
      "\\nablaus": 5016,
      "\\GammaM": 5017,
      "\\Gammam": 5018,
      "\\Gamman": 5019,
      "\\timesQ": 5020,
      "\\Omegat": 5021,
      "\\Omegay": 5022,
      "\\PhiN": 5023,
      "\\PhiQ": 5024,
      "\\veps": 5025,
      "\\dc": 5026,
      "\\dh": 5027,
      "\\Li": 5028,
      "\\chiA": 5029,
      "\\Lambdag": 5030,
      "\\bfx": 5031,
      "\\kappaw": 5032,
      "\\kappax": 5033,
      "\\zero": 5034,
      "\\zetaj": 5035,
      "\\zetak": 5036,
      "\\tov": 5037,
      "\\prodx": 5038,
      "\\geqinf": 5039,
      "\\sinB": 5040,
      "\\Sigmaf": 5041,
      "\\capW": 5042,
      "\\capc": 5043,
      "\\subsetR": 5044,
      "\\subsetU": 5045,
      "\\neql": 5046,
      "\\detM": 5047,
      "res": 5048,
      "\\nequiv": 5049,
      "ano": 5050,
      "\\Xint": 5051,
      "\\ointop": 5052,
      "\\checkmark": 5053,
      "\\spade": 5054,
      "ondition": 5055,
      "\\intdk": 5056,
      "\\intddx": 5057,
      "\\CT": 5058,
      "aij": 5059,
      "\\partialxf": 5060,
      "\\quadsr": 5061,
      "\\quadML": 5062,
      "\\piif": 5063,
      "\\upharpoonleft": 5064,
      "\\quadcl": 5065,
      "\\quadIV": 5066,
      "\\quadIn": 5067,
      "\\quadhu": 5068,
      "\\partialzi": 5069,
      "\\partialyi": 5070,
      "\\circleddash": 5071,
      "\\inftydk": 5072,
      "\\inftyds": 5073,
      "\\partialaX": 5074,
      "form": 5075,
      "\\partialbX": 5076,
      "\\deltaik": 5077,
      "\\Omegam": 5078,
      "\\dxdkdk": 5079,
      "\\omegajq": 5080,
      "\\epsilong": 5081,
      "dxidxj": 5082,
      "mooth": 5083,
      "\\quadSpec": 5084,
      "\\volume": 5085,
      "\\respec": 5086,
      "omainf": 5087,
      "\\esssup": 5088,
      "\\bigboxplus": 5089,
      "scrip": 5090,
      "\\risingdotseq": 5091,
      "\\owns": 5092,
      "\\mathaccent": 5093,
      "\\spadesuit": 5094,
      "AP": 5095,
      "An": 5096,
      "Ba": 5097,
      "Co": 5098,
      "Gl": 5099,
      "HD": 5100,
      "JB": 5101,
      "Ki": 5102,
      "Ri": 5103,
      "SR": 5104,
      "TeX": 5105,
      "\\appro": 5106,
      "aR": 5107,
      "bic": 5108,
      "cn": 5109,
      "cre": 5110,
      "dV": 5111,
      "eV": 5112,
      "ey": 5113,
      "ema": 5114,
      "equation": 5115,
      "formal": 5116,
      "gP": 5117,
      "ged": 5118,
      "gij": 5119,
      "gathered": 5120,
      "iab": 5121,
      "ice": 5122,
      "ital": 5123,
      "llap": 5124,
      "mg": 5125,
      "nr": 5126,
      "nx": 5127,
      "ort": 5128,
      "sn": 5129,
      "so": 5130,
      "ui": 5131,
      "uj": 5132,
      "ving": 5133,
      "wk": 5134,
      "\\rr": 5135,
      "rable": 5136,
      "\\pod": 5137,
      "inner": 5138,
      "\\smooth": 5139,
      "\\bcd": 5140,
      "\\block": 5141,
      "tics": 5142,
      "\\ing": 5143,
      "\\inh": 5144,
      "\\one": 5145,
      "\\ca": 5146,
      "\\cf": 5147,
      "\\mathllap": 5148,
      "def": 5149,
      "\\eject": 5150,
      "vergen": 5151,
      "\\alphaH": 5152,
      "\\alphaJ": 5153,
      "\\alphaU": 5154,
      "\\alphaXi": 5155,
      "\\overunder": 5156,
      "\\muY": 5157,
      "\\muw": 5158,
      "\\mutation": 5159,
      "\\suman": 5160,
      "\\parital": 5161,
      "\\partialK": 5162,
      "\\partialai": 5163,
      "\\partialln": 5164,
      "\\nU": 5165,
      "\\nsupset": 5166,
      "\\val": 5167,
      "\\sumC": 5168,
      "\\sumim": 5169,
      "\\cdotF": 5170,
      "\\cdotI": 5171,
      "\\cdotS": 5172,
      "\\lambdaC": 5173,
      "\\intN": 5174,
      "\\intj": 5175,
      "\\intq": 5176,
      "\\inttt": 5177,
      "\\intts": 5178,
      "\\gap": 5179,
      "\\gathered": 5180,
      "\\piJ": 5181,
      "\\piim": 5182,
      "\\piie": 5183,
      "\\sqrtb": 5184,
      "\\variab": 5185,
      "que": 5186,
      "\\betab": 5187,
      "\\nuB": 5188,
      "\\nuE": 5189,
      "\\nuM": 5190,
      "\\nuX": 5191,
      "\\nuc": 5192,
      "\\phiA": 5193,
      "\\phiB": 5194,
      "\\phih": 5195,
      "\\phik": 5196,
      "\\phiv": 5197,
      "\\sigmaL": 5198,
      "\\sigmaR": 5199,
      "\\sigmaab": 5200,
      "\\deltaV": 5201,
      "\\deltaZ": 5202,
      "\\deltad": 5203,
      "\\deltaw": 5204,
      "psil": 5205,
      "\\gammaI": 5206,
      "\\gammae": 5207,
      "\\thetaA": 5208,
      "\\thetaH": 5209,
      "\\thetao": 5210,
      "\\thetav": 5211,
      "\\thetay": 5212,
      "\\thetaij": 5213,
      "\\inftyI": 5214,
      "\\inftyJ": 5215,
      "\\inftym": 5216,
      "\\quadar": 5217,
      "\\quadam": 5218,
      "\\quadts": 5219,
      "\\quadsec": 5220,
      "\\endgathered": 5221,
      "\\taur": 5222,
      "\\rhoB": 5223,
      "\\rhoF": 5224,
      "\\rhoG": 5225,
      "\\rhoM": 5226,
      "\\rhoN": 5227,
      "\\rhoR": 5228,
      "\\rhof": 5229,
      "\\omegaJ": 5230,
      "\\psiD": 5231,
      "\\psiL": 5232,
      "\\xid": 5233,
      "\\xil": 5234,
      "\\xir": 5235,
      "\\tc": 5236,
      "\\tx": 5237,
      "\\etab": 5238,
      "\\etas": 5239,
      "\\etat": 5240,
      "\\Bf": 5241,
      "\\Bore": 5242,
      "\\epsilonA": 5243,
      "\\epsilony": 5244,
      "\\Ddot": 5245,
      "\\Div": 5246,
      "\\DeltaN": 5247,
      "\\Deltad": 5248,
      "\\leqG": 5249,
      "\\leqmax": 5250,
      "\\when": 5251,
      "\\nablaE": 5252,
      "\\nablad": 5253,
      "\\nablaZX": 5254,
      "rowvert": 5255,
      "\\Gamm": 5256,
      "\\GeV": 5257,
      "\\Gammad": 5258,
      "\\Gammaf": 5259,
      "\\timesO": 5260,
      "\\timesx": 5261,
      "\\timesy": 5262,
      "\\OmegaN": 5263,
      "\\Omegan": 5264,
      "\\Omegap": 5265,
      "\\Omegaij": 5266,
      "\\Phic": 5267,
      "\\Lambd": 5268,
      "\\chiI": 5269,
      "\\chic": 5270,
      "\\pmP": 5271,
      "\\ki": 5272,
      "\\LambdaA": 5273,
      "\\LambdaI": 5274,
      "stdisplay": 5275,
      "\\kappaB": 5276,
      "\\kappae": 5277,
      "\\kappai": 5278,
      "\\zetae": 5279,
      "\\toL": 5280,
      "\\prodD": 5281,
      "\\prodq": 5282,
      "\\textunder": 5283,
      "\\PsiA": 5284,
      "\\Psii": 5285,
      "ivi": 5286,
      "\\geqX": 5287,
      "\\geqy": 5288,
      "ors": 5289,
      "\\hence": 5290,
      "\\udot": 5291,
      "\\ax": 5292,
      "\\both": 5293,
      "\\fq": 5294,
      "\\fill": 5295,
      "styl": 5296,
      "\\capE": 5297,
      "\\PiAf": 5298,
      "\\simple": 5299,
      "\\subsetK": 5300,
      "\\subsetW": 5301,
      "\\dist": 5302,
      "\\displaystyl": 5303,
      "\\neqb": 5304,
      "\\cupQ": 5305,
      "\\divi": 5306,
      "\\permu": 5307,
      "\\RR": 5308,
      "\\cancelcolor": 5309,
      "\\Xv": 5310,
      "illat": 5311,
      "\\projlim": 5312,
      "\\xH": 5313,
      "\\xmapsto": 5314,
      "\\are": 5315,
      "\\thin": 5316,
      "\\modd": 5317,
      "iej": 5318,
      "\\brane": 5319,
      "score": 5320,
      "\\VB": 5321,
      "\\Hu": 5322,
      "\\CC": 5323,
      "\\Condition": 5324,
      "sqrt": 5325,
      "surable": 5326,
      "\\JP": 5327,
      "\\Ju": 5328,
      "\\Join": 5329,
      "\\NS": 5330,
      "\\Math": 5331,
      "\\sech": 5332,
      "\\YT": 5333,
      "\\YX": 5334,
      "\\postdisplay": 5335,
      "\\partialxg": 5336,
      "\\partialxu": 5337,
      "\\protectE": 5338,
      "\\protectZ": 5339,
      "\\dtd": 5340,
      "\\partialtf": 5341,
      "\\piib": 5342,
      "\\piiy": 5343,
      "dxd": 5344,
      "tions": 5345,
      "penal": 5346,
      "\\normalcolor": 5347,
      "\\allj": 5348,
      "\\thickspace": 5349,
      "\\inRN": 5350,
      "\\quadWXY": 5351,
      "\\leqno": 5352,
      "\\inCc": 5353,
      "\\piGN": 5354,
      "\\piGT": 5355,
      "\\intdxdy": 5356,
      "\\inGL": 5357,
      "\\roots": 5358,
      "\\partialiA": 5359,
      "\\sumall": 5360,
      "\\backepsilon": 5361,
      "\\partialaf": 5362,
      "\\partialax": 5363,
      "\\timesSp": 5364,
      "eiS": 5365,
      "\\intCd": 5366,
      "\\intxx": 5367,
      "\\intRN": 5368,
      "\\measurable": 5369,
      "\\const": 5370,
      "\\conformal": 5371,
      "\\convergen": 5372,
      "\\epsilonabe": 5373,
      "\\omegann": 5374,
      "\\uniform": 5375,
      "\\lambdamy": 5376,
      "\\looparrowleft": 5377,
      "\\intAf": 5378,
      "\\sumfrom": 5379,
      "\\others": 5380,
      "\\satisfy": 5381,
      "asing": 5382,
      "\\inftycn": 5383,
      "\\timesiD": 5384,
      "\\sumipi": 5385,
      "\\piinx": 5386,
      "\\intvd": 5387,
      "\\addition": 5388,
      "\\Arrowvert": 5389,
      "\\DeltaAOB": 5390,
      "\\ideals": 5391,
      "\\LaTeX": 5392,
      "\\Omegared": 5393,
      "\\oscillat": 5394,
      "\\Toda": 5395,
      "\\downharpoon": 5396,
      "\\qedhere": 5397,
      "tively": 5398,
      "\\locally": 5399,
      "\\fields": 5400,
      "\\approxp": 5401,
      "creasing": 5402,
      "ematics": 5403,
      "\\blocks": 5404,
      "\\overunderset": 5405,
      "\\nsupseteq": 5406,
      "\\variables": 5407,
      "\\Borel": 5408,
      "\\textunderscore": 5409,
      "\\permutation": 5410,
      "\\Mathematics": 5411,
      "\\postdisplaypenal": 5412,
      "\\convergence": 5413,
      "\\uniformly": 5414,
      "\\oscillators": 5415,
      "\\postdisplaypenalty": 5416,
      "AV": 5417,
      "BC": 5418,
      "CE": 5419,
      "DE": 5420,
      "FB": 5421,
      "FM": 5422,
      "Ga": 5423,
      "JK": 5424,
      "KP": 5425,
      "LL": 5426,
      "Ld": 5427,
      "PR": 5428,
      "QI": 5429,
      "Qij": 5430,
      "Rj": 5431,
      "Rx": 5432,
      "Sh": 5433,
      "TD": 5434,
      "TF": 5435,
      "Tb": 5436,
      "Vp": 5437,
      "ZN": 5438,
      "ae": 5439,
      "bj": 5440,
      "dX": 5441,
      "dj": 5442,
      "div": 5443,
      "gD": 5444,
      "gH": 5445,
      "hn": 5446,
      "ham": 5447,
      "ling": 5448,
      "mj": 5449,
      "nab": 5450,
      "neqq": 5451,
      "pj": 5452,
      "pp": 5453,
      "qk": 5454,
      "rf": 5455,
      "rg": 5456,
      "rr": 5457,
      "sj": 5458,
      "sm": 5459,
      "sds": 5460,
      "tM": 5461,
      "tot": 5462,
      "two": 5463,
      "tdt": 5464,
      "ure": 5465,
      "vj": 5466,
      "vx": 5467,
      "wv": 5468,
      "xP": 5469,
      "xd": 5470,
      "yk": 5471,
      "\\langl": 5472,
      "rabic": 5473,
      "ind": 5474,
      "alS": 5475,
      "\\sj": 5476,
      "\\ina": 5477,
      "\\inl": 5478,
      "\\inth": 5479,
      "\\map": 5480,
      "\\ep": 5481,
      "\\alphaY": 5482,
      "\\alphaab": 5483,
      "\\alphaai": 5484,
      "\\alphaexp": 5485,
      "\\mucos": 5486,
      "\\musin": 5487,
      "\\muij": 5488,
      "\\parti": 5489,
      "\\partialip": 5490,
      "\\partialhk": 5491,
      "\\sumid": 5492,
      "\\sumzi": 5493,
      "\\cdotN": 5494,
      "\\cdotR": 5495,
      "\\cdotY": 5496,
      "\\cdote": 5497,
      "\\cdotz": 5498,
      "\\cdotdx": 5499,
      "\\lambdaJ": 5500,
      "\\lambdao": 5501,
      "\\lambdasin": 5502,
      "\\intH": 5503,
      "\\intW": 5504,
      "\\intg": 5505,
      "\\intk": 5506,
      "\\intm": 5507,
      "\\intcd": 5508,
      "\\inttr": 5509,
      "\\intlog": 5510,
      "\\piE": 5511,
      "\\piV": 5512,
      "\\piW": 5513,
      "\\piip": 5514,
      "\\sqrtF": 5515,
      "\\sqrtQ": 5516,
      "\\sqrtf": 5517,
      "\\betaJ": 5518,
      "\\betaQ": 5519,
      "\\betaZ": 5520,
      "\\betasin": 5521,
      "\\betaij": 5522,
      "\\betaTr": 5523,
      "\\nuH": 5524,
      "\\phic": 5525,
      "\\phis": 5526,
      "\\sigmaG": 5527,
      "\\sigmaK": 5528,
      "\\sigmac": 5529,
      "\\sigmah": 5530,
      "\\deltaM": 5531,
      "\\deltaP": 5532,
      "\\deltaR": 5533,
      "\\deltaT": 5534,
      "\\deltab": 5535,
      "\\deltamn": 5536,
      "\\gammaP": 5537,
      "\\gammaQ": 5538,
      "\\gammau": 5539,
      "\\thetaB": 5540,
      "\\thetaD": 5541,
      "\\thetaI": 5542,
      "\\thetaN": 5543,
      "\\thetaT": 5544,
      "\\thetas": 5545,
      "\\inftyD": 5546,
      "\\inftyE": 5547,
      "\\inftyN": 5548,
      "\\inftyX": 5549,
      "\\inftyk": 5550,
      "\\inftyq": 5551,
      "\\inftyz": 5552,
      "\\inftyei": 5553,
      "\\inftybn": 5554,
      "hoice": 5555,
      "\\quadma": 5556,
      "\\quadop": 5557,
      "\\quadse": 5558,
      "\\quadinf": 5559,
      "\\quadker": 5560,
      "\\quadke": 5561,
      "\\PP": 5562,
      "\\Ph": 5563,
      "\\Phig": 5564,
      "\\Partial": 5565,
      "\\tauL": 5566,
      "\\tauP": 5567,
      "\\tauT": 5568,
      "\\tauc": 5569,
      "\\tauf": 5570,
      "\\tauu": 5571,
      "\\rhoX": 5572,
      "\\rhocos": 5573,
      "\\rhosin": 5574,
      "\\rhoij": 5575,
      "\\rhodx": 5576,
      "\\omegaG": 5577,
      "\\omegaI": 5578,
      "\\omegay": 5579,
      "\\omegaji": 5580,
      "\\psiB": 5581,
      "\\psiu": 5582,
      "\\psix": 5583,
      "\\xif": 5584,
      "\\xih": 5585,
      "\\tod": 5586,
      "\\tsum": 5587,
      "\\etal": 5588,
      "\\etax": 5589,
      "\\etadx": 5590,
      "\\varphin": 5591,
      "\\Bigtriangle": 5592,
      "\\epsilonB": 5593,
      "\\epsilonN": 5594,
      "\\epsilonb": 5595,
      "\\epsilonj": 5596,
      "\\epsilonq": 5597,
      "\\epsilonz": 5598,
      "\\epsilonln": 5599,
      "rob": 5600,
      "\\De": 5601,
      "\\Dlta": 5602,
      "\\Deltari": 5603,
      "\\mathbbm": 5604,
      "llar": 5605,
      "\\leqD": 5606,
      "\\leqH": 5607,
      "\\leqQ": 5608,
      "\\leqft": 5609,
      "\\leqmin": 5610,
      "\\leqlog": 5611,
      "\\whi": 5612,
      "\\calT": 5613,
      "\\nablaM": 5614,
      "\\nablaX": 5615,
      "\\nablae": 5616,
      "\\GammaA": 5617,
      "\\timesJ": 5618,
      "\\timesf": 5619,
      "\\timest": 5620,
      "\\OmegaF": 5621,
      "\\Omegaab": 5622,
      "\\PhiB": 5623,
      "\\Phim": 5624,
      "\\Ld": 5625,
      "\\chiR": 5626,
      "\\chik": 5627,
      "\\chimn": 5628,
      "\\pmR": 5629,
      "\\pmT": 5630,
      "\\pmX": 5631,
      "\\pmf": 5632,
      "\\varep": 5633,
      "\\LambdaC": 5634,
      "\\LambdaK": 5635,
      "\\Lambdac": 5636,
      "\\Lambdai": 5637,
      "ster": 5638,
      "\\kappaC": 5639,
      "\\kappac": 5640,
      "\\zetaG": 5641,
      "\\toI": 5642,
      "\\toJ": 5643,
      "\\toO": 5644,
      "\\toQ": 5645,
      "\\tol": 5646,
      "\\tow": 5647,
      "\\prodr": 5648,
      "\\prodni": 5649,
      "\\textqu": 5650,
      "\\geqP": 5651,
      "\\geqh": 5652,
      "\\geqv": 5653,
      "\\sinA": 5654,
      "\\Sp": 5655,
      "\\Sum": 5656,
      "\\SigmaA": 5657,
      "\\Sigmac": 5658,
      "\\Sigmay": 5659,
      "uper": 5660,
      "\\arabic": 5661,
      "eqless": 5662,
      "\\capJ": 5663,
      "\\PiV": 5664,
      "\\subsetB": 5665,
      "\\subsetC": 5666,
      "\\subsetF": 5667,
      "\\subsetN": 5668,
      "\\subsetX": 5669,
      "idi": 5670,
      "\\approxC": 5671,
      "\\approxN": 5672,
      "\\approxP": 5673,
      "\\approxm": 5674,
      "\\approxsin": 5675,
      "\\ih": 5676,
      "\\neqa": 5677,
      "\\neqc": 5678,
      "\\cupI": 5679,
      "\\cupL": 5680,
      "\\minus": 5681,
      "\\RightarrowP": 5682,
      "\\xh": 5683,
      "supp": 5684,
      "\\intdU": 5685,
      "\\intdq": 5686,
      "\\intdr": 5687,
      "\\intdDx": 5688,
      "other": 5689,
      "\\gtreqless": 5690,
      "\\sumif": 5691,
      "\\sumir": 5692,
      "\\sumilog": 5693,
      "roduct": 5694,
      "\\poch": 5695,
      "\\partialxk": 5696,
      "\\partialxm": 5697,
      "\\partialxx": 5698,
      "\\quadso": 5699,
      "\\quadPh": 5700,
      "\\quaddP": 5701,
      "\\quaddX": 5702,
      "\\quaddf": 5703,
      "\\quaddh": 5704,
      "\\quaddz": 5705,
      "\\quadMS": 5706,
      "\\piia": 5707,
      "\\sumna": 5708,
      "dxx": 5709,
      "\\sumjf": 5710,
      "\\quadcx": 5711,
      "\\quadVar": 5712,
      "\\mathchoice": 5713,
      "\\quadInt": 5714,
      "\\quadNP": 5715,
      "\\partialzA": 5716,
      "\\partialyy": 5717,
      "\\inAL": 5718,
      "\\inRd": 5719,
      "superscrip": 5720,
      "\\trianglelefteqslant": 5721,
      "logn": 5722,
      "\\pirH": 5723,
      "\\partialiX": 5724,
      "\\partialiy": 5725,
      "\\sqrtgg": 5726,
      "\\sqrtgh": 5727,
      "\\inftydE": 5728,
      "\\inftydT": 5729,
      "\\DeltaABO": 5730,
      "olid": 5731,
      "\\partialpi": 5732,
      "\\intat": 5733,
      "\\DeltaAC": 5734,
      "\\DeltaAP": 5735,
      "\\partialjf": 5736,
      "\\intRn": 5737,
      "\\epsilonabcA": 5738,
      "\\intBr": 5739,
      "\\toAA": 5740,
      "\\toAV": 5741,
      "\\thetasinh": 5742,
      "\\rhodz": 5743,
      "\\leqdp": 5744,
      "\\kappar": 5745,
      "\\rhogh": 5746,
      "\\toSU": 5747,
      "\\alphatf": 5748,
      "\\mugg": 5749,
      "\\deltakl": 5750,
      "\\toPV": 5751,
      "\\rhonx": 5752,
      "\\lambdalog": 5753,
      "\\pigN": 5754,
      "\\iddots": 5755,
      "\\integral": 5756,
      "unc": 5757,
      "\\lambdaSW": 5758,
      "\\tauXI": 5759,
      "\\alphaqa": 5760,
      "\\DeltaAOC": 5761,
      "\\intDAD": 5762,
      "\\quadarcsin": 5763,
      "nzn": 5764,
      "\\infinity": 5765,
      "\\sigmadWt": 5766,
      "\\sheet": 5767,
      "\\intixP": 5768,
      "\\fontfamily": 5769,
      "\\wedged": 5770,
      "\\Sigmafrom": 5771,
      "hammer": 5772,
      "\\pochhammer": 5773,
      "Aa": 5774,
      "Ax": 5775,
      "CB": 5776,
      "Cov": 5777,
      "DF": 5778,
      "Dj": 5779,
      "ED": 5780,
      "Ei": 5781,
      "FL": 5782,
      "Gk": 5783,
      "Hd": 5784,
      "IN": 5785,
      "LF": 5786,
      "LN": 5787,
      "Li": 5788,
      "Ln": 5789,
      "MR": 5790,
      "NX": 5791,
      "Nd": 5792,
      "Pj": 5793,
      "Pn": 5794,
      "QC": 5795,
      "Rk": 5796,
      "Ta": 5797,
      "Tf": 5798,
      "TUV": 5799,
      "TBV": 5800,
      "VR": 5801,
      "Vk": 5802,
      "Wj": 5803,
      "YY": 5804,
      "ZY": 5805,
      "\\5": 5806,
      "\\7": 5807,
      "\\`": 5808,
      "\\ha": 5809,
      "\\hi": 5810,
      "ation": 5811,
      "bz": 5812,
      "cD": 5813,
      "cT": 5814,
      "cc": 5815,
      "cVert": 5816,
      "dP": 5817,
      "dY": 5818,
      "dim": 5819,
      "ev": 5820,
      "fa": 5821,
      "func": 5822,
      "half": 5823,
      "ih": 5824,
      "iza": 5825,
      "jVi": 5826,
      "kj": 5827,
      "kt": 5828,
      "lh": 5829,
      "lr": 5830,
      "mk": 5831,
      "mx": 5832,
      "nf": 5833,
      "nj": 5834,
      "ns": 5835,
      "nln": 5836,
      "orall": 5837,
      "pM": 5838,
      "pm": 5839,
      "pare": 5840,
      "qd": 5841,
      "sgn": 5842,
      "tc": 5843,
      "tj": 5844,
      "ua": 5845,
      "ulo": 5846,
      "ull": 5847,
      "vw": 5848,
      "vy": 5849,
      "vdash": 5850,
      "wd": 5851,
      "wj": 5852,
      "yc": 5853,
      "yf": 5854,
      "yn": 5855,
      "zz": 5856,
      "\\lang": 5857,
      "\\ri": 5858,
      "\\rad": 5859,
      "ink": 5860,
      "alk": 5861,
      "aln": 5862,
      "\\bet": 5863,
      "\\bgroup": 5864,
      "\\blu": 5865,
      "\\inline": 5866,
      "\\inner": 5867,
      "\\old": 5868,
      "\\chin": 5869,
      "\\chig": 5870,
      "otA": 5871,
      "ots": 5872,
      "otes": 5873,
      "hid": 5874,
      "\\mq": 5875,
      "\\mTBV": 5876,
      "\\mathinner": 5877,
      "delta": 5878,
      "dewidth": 5879,
      "\\eb": 5880,
      "\\egroup": 5881,
      "verse": 5882,
      "\\alphaK": 5883,
      "\\alphaW": 5884,
      "\\alphaAB": 5885,
      "\\alphaprime": 5886,
      "\\overbar": 5887,
      "\\muid": 5888,
      "\\muss": 5889,
      "\\muexp": 5890,
      "\\mumn": 5891,
      "\\partialO": 5892,
      "\\partiald": 5893,
      "\\partialim": 5894,
      "\\partialck": 5895,
      "\\partiallog": 5896,
      "\\ng": 5897,
      "\\nn": 5898,
      "\\nvdash": 5899,
      "\\vt": 5900,
      "\\vw": 5901,
      "\\sumB": 5902,
      "\\sumH": 5903,
      "\\sumK": 5904,
      "\\sumL": 5905,
      "\\sumig": 5906,
      "\\sumxi": 5907,
      "\\sumAB": 5908,
      "\\cdotJ": 5909,
      "\\cdotZ": 5910,
      "\\cdotj": 5911,
      "\\cdotw": 5912,
      "\\lambdaG": 5913,
      "\\lambdaai": 5914,
      "\\lambdadt": 5915,
      "\\intZ": 5916,
      "\\intsin": 5917,
      "\\intln": 5918,
      "\\intTr": 5919,
      "\\go": 5920,
      "\\pift": 5921,
      "\\piab": 5922,
      "\\piil": 5923,
      "\\sqrtI": 5924,
      "\\sqrtW": 5925,
      "\\sqrtge": 5926,
      "\\sqrtre": 5927,
      "\\betaK": 5928,
      "\\betaN": 5929,
      "\\betaW": 5930,
      "\\betaab": 5931,
      "\\betadt": 5932,
      "\\betalog": 5933,
      "\\delim": 5934,
      "nds": 5935,
      "\\nuC": 5936,
      "\\nuU": 5937,
      "\\nuv": 5938,
      "\\phiD": 5939,
      "\\phiX": 5940,
      "\\phiz": 5941,
      "\\phidt": 5942,
      "\\sigmaE": 5943,
      "\\sigmaJ": 5944,
      "\\sigmaM": 5945,
      "\\sigmaV": 5946,
      "\\sigmaW": 5947,
      "\\sigmaZ": 5948,
      "\\deltain": 5949,
      "\\deltaac": 5950,
      "\\deltazi": 5951,
      "\\deltacA": 5952,
      "\\deltaba": 5953,
      "\\deltacb": 5954,
      "\\gammac": 5955,
      "\\gammast": 5956,
      "\\thetaF": 5957,
      "\\thetaq": 5958,
      "\\thetaTr": 5959,
      "\\inftyA": 5960,
      "\\inftyH": 5961,
      "\\inftya": 5962,
      "\\inftyh": 5963,
      "\\inftyu": 5964,
      "\\inftyv": 5965,
      "\\inftysin": 5966,
      "\\quadst": 5967,
      "\\quadre": 5968,
      "\\tauE": 5969,
      "\\tauN": 5970,
      "\\tauZ": 5971,
      "\\tauh": 5972,
      "\\taul": 5973,
      "\\tauz": 5974,
      "\\tauei": 5975,
      "\\rhoL": 5976,
      "\\rhoQ": 5977,
      "\\rhoj": 5978,
      "\\rhor": 5979,
      "\\rhoy": 5980,
      "\\rhout": 5981,
      "\\rhoei": 5982,
      "\\rhods": 5983,
      "\\omegaA": 5984,
      "\\omegaD": 5985,
      "\\omegab": 5986,
      "\\omegae": 5987,
      "\\omegaf": 5988,
      "\\omegacos": 5989,
      "\\omegasin": 5990,
      "\\psiab": 5991,
      "\\xiF": 5992,
      "\\xiX": 5993,
      "\\xic": 5994,
      "\\xie": 5995,
      "\\xik": 5996,
      "\\xiad": 5997,
      "calP": 5998,
      "\\tB": 5999,
      "\\twid": 6000,
      "\\etae": 6001,
      "\\etaf": 6002,
      "\\etau": 6003,
      "\\etav": 6004,
      "\\etacos": 6005,
      "\\etamn": 6006,
      "\\etacosh": 6007,
      "\\etasinh": 6008,
      "\\etaIn": 6009,
      "\\BJB": 6010,
      "\\varphic": 6011,
      "\\epsilonh": 6012,
      "\\epsilonr": 6013,
      "\\epsilons": 6014,
      "\\epsilonAB": 6015,
      "ron": 6016,
      "rox": 6017,
      "\\Dk": 6018,
      "\\DeltaY": 6019,
      "\\Deltac": 6020,
      "\\Deltaij": 6021,
      "\\leqA": 6022,
      "\\leqV": 6023,
      "abla": 6024,
      "\\nablan": 6025,
      "\\nablaum": 6026,
      "\\nablaju": 6027,
      "\\GammaD": 6028,
      "\\Gammag": 6029,
      "\\Gammat": 6030,
      "\\Gammax": 6031,
      "\\Gammaab": 6032,
      "\\Gammabar": 6033,
      "\\Gammaij": 6034,
      "\\GammacalP": 6035,
      "\\timesW": 6036,
      "\\timesk": 6037,
      "\\timesn": 6038,
      "\\timesu": 6039,
      "\\timesw": 6040,
      "\\timessin": 6041,
      "\\timesAB": 6042,
      "\\timeslog": 6043,
      "\\Omegag": 6044,
      "\\OmegaNa": 6045,
      "\\OmegaLC": 6046,
      "\\PhiL": 6047,
      "\\Phie": 6048,
      "\\Phij": 6049,
      "\\Phir": 6050,
      "\\Phix": 6051,
      "\\vecr": 6052,
      "\\Lu": 6053,
      "\\chiE": 6054,
      "\\chip": 6055,
      "\\chiij": 6056,
      "\\chiLC": 6057,
      "\\limfunc": 6058,
      "\\pmM": 6059,
      "\\pmN": 6060,
      "\\pmd": 6061,
      "\\pmq": 6062,
      "\\pms": 6063,
      "\\pmy": 6064,
      "\\pmig": 6065,
      "\\LambdaN": 6066,
      "\\LambdaR": 6067,
      "\\Lambdae": 6068,
      "\\Lambdaf": 6069,
      "\\Lambdah": 6070,
      "\\Lambdas": 6071,
      "\\Lambdaij": 6072,
      "\\Lambdasuperscript": 6073,
      "\\bfR": 6074,
      "\\kappaN": 6075,
      "\\kappaj": 6076,
      "\\cdotsb": 6077,
      "\\zetap": 6078,
      "\\zetav": 6079,
      "bound": 6080,
      "\\tog": 6081,
      "\\too": 6082,
      "\\toei": 6083,
      "\\texten": 6084,
      "\\textone": 6085,
      "\\PsiN": 6086,
      "\\PsiR": 6087,
      "\\Psij": 6088,
      "\\geqQ": 6089,
      "\\geql": 6090,
      "\\geqmax": 6091,
      "\\SU": 6092,
      "\\SigmaL": 6093,
      "\\Sigmat": 6094,
      "\\Sigmadd": 6095,
      "\\qquady": 6096,
      "cket": 6097,
      "\\ag": 6098,
      "\\adot": 6099,
      "\\expval": 6100,
      "\\fam": 6101,
      "\\from": 6102,
      "\\flr": 6103,
      "\\capO": 6104,
      "\\capP": 6105,
      "\\capg": 6106,
      "\\capv": 6107,
      "\\Pif": 6108,
      "\\Pij": 6109,
      "\\Pix": 6110,
      "\\TE": 6111,
      "\\Tf": 6112,
      "\\ThetaT": 6113,
      "\\Thetad": 6114,
      "\\Thetaij": 6115,
      "\\subsetG": 6116,
      "\\subsetH": 6117,
      "\\operator": 6118,
      "\\approxE": 6119,
      "\\approxG": 6120,
      "\\approxL": 6121,
      "\\approxS": 6122,
      "\\approxe": 6123,
      "\\neqA": 6124,
      "\\neqI": 6125,
      "\\neqQ": 6126,
      "\\neqd": 6127,
      "\\neqg": 6128,
      "\\neqq": 6129,
      "\\neqr": 6130,
      "\\neqv": 6131,
      "\\neqy": 6132,
      "\\neqin": 6133,
      "\\cupD": 6134,
      "\\cupF": 6135,
      "\\cupJ": 6136,
      "\\cupf": 6137,
      "\\cupi": 6138,
      "\\cupj": 6139,
      "\\cupx": 6140,
      "rie": 6141,
      "\\Rightarrowy": 6142,
      "\\tanht": 6143,
      "\\dimtot": 6144,
      "\\xv": 6145,
      "\\Real": 6146,
      "\\Uni": 6147,
      "\\jkl": 6148,
      "\\boldmathbold": 6149,
      "\\IJK": 6150,
      "\\uparrowx": 6151,
      "\\supsetGl": 6152,
      "\\then": 6153,
      "ech": 6154,
      "ingle": 6155,
      "eqqless": 6156,
      "onS": 6157,
      "onst": 6158,
      "\\Ad": 6159,
      "\\precneqq": 6160,
      "\\intdA": 6161,
      "\\intdw": 6162,
      "\\intdSi": 6163,
      "\\Hom": 6164,
      "cosx": 6165,
      "\\quadAA": 6166,
      "\\quadaa": 6167,
      "\\quadac": 6168,
      "\\KF": 6169,
      "\\Ka": 6170,
      "\\gtreqqless": 6171,
      "\\sumis": 6172,
      "\\sumiai": 6173,
      "mic": 6174,
      "\\pole": 6175,
      "\\polar": 6176,
      "\\partialxt": 6177,
      "\\quadSch": 6178,
      "\\Zeta": 6179,
      "\\quadPA": 6180,
      "\\quadPV": 6181,
      "\\quaddG": 6182,
      "\\quaddl": 6183,
      "\\quadds": 6184,
      "\\quaddv": 6185,
      "\\quaddiv": 6186,
      "\\quaddomainf": 6187,
      "\\leqqN": 6188,
      "\\quadCD": 6189,
      "\\quadCR": 6190,
      "\\quadCl": 6191,
      "\\quadMN": 6192,
      "\\partialtA": 6193,
      "\\partialtd": 6194,
      "\\quadpq": 6195,
      "\\piiK": 6196,
      "\\piic": 6197,
      "\\piikx": 6198,
      "\\sumnc": 6199,
      "\\sumne": 6200,
      "\\sumnj": 6201,
      "\\sumjq": 6202,
      "\\sumjmj": 6203,
      "\\sumjpj": 6204,
      "\\quadXX": 6205,
      "\\quadXY": 6206,
      "\\quadca": 6207,
      "\\quadDE": 6208,
      "\\quadTM": 6209,
      "\\quadTr": 6210,
      "\\quadbc": 6211,
      "\\quadbalS": 6212,
      "\\quadGM": 6213,
      "ension": 6214,
      "\\intDe": 6215,
      "\\intDp": 6216,
      "\\intDv": 6217,
      "rdr": 6218,
      "\\inSn": 6219,
      "\\quadwR": 6220,
      "\\inAy": 6221,
      "\\nablauu": 6222,
      "\\leqCe": 6223,
      "dtdt": 6224,
      "\\inRr": 6225,
      "\\inIjVi": 6226,
      "\\inCU": 6227,
      "\\inCb": 6228,
      "\\piGM": 6229,
      "\\piGc": 6230,
      "\\partialui": 6231,
      "\\partialiZ": 6232,
      "cubz": 6233,
      "\\summj": 6234,
      "\\dual": 6235,
      "\\inftydz": 6236,
      "\\inUn": 6237,
      "\\inUt": 6238,
      "\\inNi": 6239,
      "\\DeltaABF": 6240,
      "\\DeltaABP": 6241,
      "\\deltaijdxidxj": 6242,
      "\\inZn": 6243,
      "\\timesSq": 6244,
      "\\nuFa": 6245,
      "\\partialvv": 6246,
      "\\binomialCo": 6247,
      "\\partialpj": 6248,
      "\\muxx": 6249,
      "\\inFn": 6250,
      "\\partialgi": 6251,
      "\\lambdafx": 6252,
      "\\pmiz": 6253,
      "\\inPS": 6254,
      "\\meter": 6255,
      "\\partialjX": 6256,
      "\\lambdakk": 6257,
      "\\intCA": 6258,
      "\\alphajk": 6259,
      "forall": 6260,
      "\\intSM": 6261,
      "\\omegakl": 6262,
      "\\pimy": 6263,
      "\\nuAc": 6264,
      "\\inJWj": 6265,
      "\\leqrz": 6266,
      "\\intXP": 6267,
      "\\lambdaAt": 6268,
      "\\intBR": 6269,
      "\\intBe": 6270,
      "\\partialbx": 6271,
      "\\deltaia": 6272,
      "\\muml": 6273,
      "\\piNg": 6274,
      "\\inQW": 6275,
      "\\nunk": 6276,
      "\\nunm": 6277,
      "\\alphaDX": 6278,
      "\\alphaDi": 6279,
      "\\quadABC": 6280,
      "\\cdotdS": 6281,
      "\\cdotdr": 6282,
      "\\nuaFa": 6283,
      "munu": 6284,
      "\\vectors": 6285,
      "\\mureg": 6286,
      "\\intVd": 6287,
      "\\pigs": 6288,
      "\\DeltaCO": 6289,
      "\\DeltaCu": 6290,
      "unction": 6291,
      "\\partialcz": 6292,
      "\\rhoAv": 6293,
      "\\pipm": 6294,
      "\\capNDB": 6295,
      "\\rhotot": 6296,
      "\\alphaQgP": 6297,
      "\\npreceq": 6298,
      "\\deltaBRS": 6299,
      "\\capIm": 6300,
      "\\Arg": 6301,
      "\\nablalog": 6302,
      "\\piIm": 6303,
      "\\sqrtVol": 6304,
      "\\Omegadr": 6305,
      "\\toKn": 6306,
      "\\Varphi": 6307,
      "\\alphalog": 6308,
      "most": 6309,
      "\\sumEi": 6310,
      "\\epsilonlmn": 6311,
      "phys": 6312,
      "\\intdsse": 6313,
      "dBt": 6314,
      "\\intstU": 6315,
      "\\quadspan": 6316,
      "\\etaRB": 6317,
      "\\extension": 6318,
      "\\Delt": 6319,
      "\\CTP": 6320,
      "\\respects": 6321,
      "some": 6322,
      "\\sigmaabnab": 6323,
      "\\quadamod": 6324,
      "\\quadWXYZ": 6325,
      "\\sumidxi": 6326,
      "\\quadkerP": 6327,
      "\\Bigtriangleup": 6328,
      "\\nablaeiej": 6329,
      "\\textquotes": 6330,
      "uperscript": 6331,
      "\\hidewidth": 6332,
      "ization": 6333,
      "\\radi": 6334,
      "\\blue": 6335,
      "\\delimsize": 6336,
      "boundar": 6337,
      "\\textendash": 6338,
      "\\textonehalf": 6339,
      "\\boldmathboldsymbol": 6340,
      "\\polarization": 6341,
      "\\binomialCoeff": 6342,
      "\\textquotesingle": 6343,
      "AG": 6344,
      "AM": 6345,
      "BS": 6346,
      "BT": 6347,
      "Br": 6348,
      "CH": 6349,
      "Cp": 6350,
      "Cu": 6351,
      "DM": 6352,
      "DO": 6353,
      "DX": 6354,
      "Ed": 6355,
      "Ex": 6356,
      "FA": 6357,
      "FC": 6358,
      "FN": 6359,
      "Fp": 6360,
      "Fs": 6361,
      "GS": 6362,
      "GU": 6363,
      "Gi": 6364,
      "Gu": 6365,
      "HI": 6366,
      "HM": 6367,
      "HS": 6368,
      "Hj": 6369,
      "IM": 6370,
      "IP": 6371,
      "JI": 6372,
      "Ja": 6373,
      "Ji": 6374,
      "KK": 6375,
      "Ka": 6376,
      "LA": 6377,
      "LK": 6378,
      "MQ": 6379,
      "MU": 6380,
      "Mf": 6381,
      "Mr": 6382,
      "Ms": 6383,
      "ND": 6384,
      "NS": 6385,
      "OR": 6386,
      "OT": 6387,
      "PA": 6388,
      "Pl": 6389,
      "Pp": 6390,
      "Ps": 6391,
      "QX": 6392,
      "Qi": 6393,
      "Rd": 6394,
      "SL": 6395,
      "SQ": 6396,
      "SW": 6397,
      "Sz": 6398,
      "TV": 6399,
      "To": 6400,
      "Ui": 6401,
      "Vc": 6402,
      "Vdash": 6403,
      "VaR": 6404,
      "WO": 6405,
      "Wi": 6406,
      "Xd": 6407,
      "Xcubz": 6408,
      "YB": 6409,
      "YP": 6410,
      "Yi": 6411,
      "\\3": 6412,
      "\\6": 6413,
      "\\8": 6414,
      "\\?": 6415,
      "\\@": 6416,
      "\\⋃": 6417,
      "\\ap": 6418,
      "ada": 6419,
      "ant": 6420,
      "aza": 6421,
      "bf": 6422,
      "bp": 6423,
      "beta": 6424,
      "bly": 6425,
      "cj": 6426,
      "cy": 6427,
      "cano": 6428,
      "dF": 6429,
      "do": 6430,
      "dp": 6431,
      "dba": 6432,
      "ea": 6433,
      "end": 6434,
      "ean": 6435,
      "eled": 6436,
      "fv": 6437,
      "gA": 6438,
      "gI": 6439,
      "gf": 6440,
      "hf": 6441,
      "hr": 6442,
      "hu": 6443,
      "if": 6444,
      "ikx": 6445,
      "iQij": 6446,
      "kb": 6447,
      "ki": 6448,
      "llat": 6449,
      "lingdotseq": 6450,
      "mm": 6451,
      "mum": 6452,
      "nm": 6453,
      "nn": 6454,
      "nta": 6455,
      "nck": 6456,
      "nce": 6457,
      "num": 6458,
      "nsion": 6459,
      "ntal": 6460,
      "ow": 6461,
      "over": 6462,
      "oro": 6463,
      "olog": 6464,
      "par": 6465,
      "ped": 6466,
      "para": 6467,
      "qN": 6468,
      "qr": 6469,
      "qdq": 6470,
      "qno": 6471,
      "rj": 6472,
      "rn": 6473,
      "rre": 6474,
      "sb": 6475,
      "sig": 6476,
      "ssi": 6477,
      "slon": 6478,
      "tZ": 6479,
      "td": 6480,
      "tle": 6481,
      "ting": 6482,
      "ux": 6483,
      "uck": 6484,
      "ullet": 6485,
      "umed": 6486,
      "ument": 6487,
      "ucl": 6488,
      "uage": 6489,
      "vdots": 6490,
      "vide": 6491,
      "vol": 6492,
      "xm": 6493,
      "xact": 6494,
      "xkx": 6495,
      "yj": 6496,
      "ys": 6497,
      "ysi": 6498,
      "\\lk": 6499,
      "\\lr": 6500,
      "\\lcm": 6501,
      "\\rv": 6502,
      "\\red": 6503,
      "\\length": 6504,
      "htheta": 6505,
      "\\rightskip": 6506,
      "race": 6507,
      "racolsep": 6508,
      "fractions": 6509,
      "\\px": 6510,
      "\\py": 6511,
      "\\pla": 6512,
      "\\pack": 6513,
      "\\pai": 6514,
      "\\path": 6515,
      "inbo": 6516,
      "inite": 6517,
      "matt": 6518,
      "alt": 6519,
      "alpha": 6520,
      "allingdotseq": 6521,
      "\\sa": 6522,
      "\\sha": 6523,
      "\\ser": 6524,
      "\\shi": 6525,
      "\\sbracket": 6526,
      "ard": 6527,
      "arr": 6528,
      "arro": 6529,
      "array": 6530,
      "\\bg": 6531,
      "\\bq": 6532,
      "\\bz": 6533,
      "\\bde": 6534,
      "\\bab": 6535,
      "tis": 6536,
      "\\inu": 6537,
      "\\insp": 6538,
      "\\inker": 6539,
      "\\inverse": 6540,
      "\\ol": 6541,
      "\\orie": 6542,
      "\\omic": 6543,
      "\\cM": 6544,
      "\\cP": 6545,
      "\\cp": 6546,
      "\\cde": 6547,
      "\\cub": 6548,
      "\\cQX": 6549,
      "hab": 6550,
      "erman": 6551,
      "\\mark": 6552,
      "\\mM": 6553,
      "\\mj": 6554,
      "\\my": 6555,
      "\\mathster": 6556,
      "decreasing": 6557,
      "\\ec": 6558,
      "\\ef": 6559,
      "\\et": 6560,
      "\\ev": 6561,
      "\\element": 6562,
      "\\epi": 6563,
      "\\equation": 6564,
      "\\epsil": 6565,
      "\\exact": 6566,
      "versi": 6567,
      "\\alls": 6568,
      "\\almost": 6569,
      "\\alphaE": 6570,
      "\\alphaZ": 6571,
      "\\alphaw": 6572,
      "\\alphand": 6573,
      "\\alphaij": 6574,
      "\\alphadt": 6575,
      "\\alphaTr": 6576,
      "sik": 6577,
      "\\muo": 6578,
      "\\mume": 6579,
      "\\muext": 6580,
      "\\mudy": 6581,
      "\\muTr": 6582,
      "\\muds": 6583,
      "\\mucA": 6584,
      "\\sun": 6585,
      "\\surel": 6586,
      "\\partialin": 6587,
      "\\partialme": 6588,
      "\\partialxp": 6589,
      "\\partialat": 6590,
      "\\partialmi": 6591,
      "amba": 6592,
      "\\nB": 6593,
      "\\nl": 6594,
      "\\nge": 6595,
      "\\nRightarrow": 6596,
      "\\nVdash": 6597,
      "\\vs": 6598,
      "\\sumF": 6599,
      "\\sumie": 6600,
      "\\summd": 6601,
      "\\summation": 6602,
      "\\sumCi": 6603,
      "\\sumiln": 6604,
      "\\cdotM": 6605,
      "\\cdotT": 6606,
      "\\cdotV": 6607,
      "\\cdotc": 6608,
      "\\lambdaK": 6609,
      "\\lambdaQ": 6610,
      "\\lambdaU": 6611,
      "\\lambdait": 6612,
      "\\lambdaeq": 6613,
      "\\lambdaag": 6614,
      "\\intsk": 6615,
      "\\intrd": 6616,
      "\\intexp": 6617,
      "\\intei": 6618,
      "\\intNi": 6619,
      "\\gK": 6620,
      "\\gP": 6621,
      "\\gR": 6622,
      "\\gX": 6623,
      "\\gY": 6624,
      "\\gho": 6625,
      "\\gdef": 6626,
      "\\piX": 6627,
      "\\piY": 6628,
      "\\piZ": 6629,
      "\\piw": 6630,
      "\\pisin": 6631,
      "\\pizi": 6632,
      "\\piijk": 6633,
      "\\piEn": 6634,
      "rting": 6635,
      "\\sqrtO": 6636,
      "\\sqrtP": 6637,
      "\\sqrtX": 6638,
      "\\sqrtv": 6639,
      "\\sqrty": 6640,
      "\\sqrtlo": 6641,
      "\\sqrtsin": 6642,
      "\\sqrtlog": 6643,
      "\\sqrtwk": 6644,
      "quence": 6645,
      "\\til": 6646,
      "\\betaC": 6647,
      "\\betaG": 6648,
      "\\betaz": 6649,
      "\\betata": 6650,
      "\\betain": 6651,
      "\\betatr": 6652,
      "\\betaln": 6653,
      "\\pref": 6654,
      "ngn": 6655,
      "nguage": 6656,
      "\\degen": 6657,
      "\\decreasing": 6658,
      "ndx": 6659,
      "\\nuI": 6660,
      "\\nuK": 6661,
      "\\nutr": 6662,
      "\\phiL": 6663,
      "\\phiP": 6664,
      "\\phiZ": 6665,
      "\\phim": 6666,
      "\\phio": 6667,
      "\\phiq": 6668,
      "\\phir": 6669,
      "\\phiy": 6670,
      "\\phiss": 6671,
      "\\phidx": 6672,
      "\\sigmaC": 6673,
      "\\sigmaY": 6674,
      "\\sigmaf": 6675,
      "\\sigmap": 6676,
      "\\sigmaz": 6677,
      "\\sigmasin": 6678,
      "\\sigmadx": 6679,
      "\\sigmamd": 6680,
      "\\sigmaexp": 6681,
      "\\sigmaXi": 6682,
      "\\sigmamax": 6683,
      "\\deltaC": 6684,
      "\\deltaU": 6685,
      "\\deltac": 6686,
      "\\deltaz": 6687,
      "\\deltaai": 6688,
      "\\deltavi": 6689,
      "\\deltars": 6690,
      "\\gammaN": 6691,
      "\\gammaS": 6692,
      "\\gammaU": 6693,
      "\\gammaq": 6694,
      "\\gammacos": 6695,
      "\\thetaC": 6696,
      "\\thetaJ": 6697,
      "\\thetah": 6698,
      "\\thetaid": 6699,
      "\\thetaei": 6700,
      "\\thetaji": 6701,
      "\\thetani": 6702,
      "\\thetamu": 6703,
      "\\inftyW": 6704,
      "\\inftyb": 6705,
      "\\inftyj": 6706,
      "\\inftyy": 6707,
      "\\inftyck": 6708,
      "\\inftyand": 6709,
      "\\inftyte": 6710,
      "\\inftypi": 6711,
      "\\inftyxn": 6712,
      "\\quadle": 6713,
      "\\quadla": 6714,
      "\\quadid": 6715,
      "\\quadcom": 6716,
      "\\quadij": 6717,
      "\\quadcosh": 6718,
      "\\endgroup": 6719,
      "\\begingroup": 6720,
      "imension": 6721,
      "\\PT": 6722,
      "\\Psin": 6723,
      "\\PYP": 6724,
      "\\Psig": 6725,
      "\\tauK": 6726,
      "\\tauS": 6727,
      "\\tauY": 6728,
      "\\tauv": 6729,
      "\\taufd": 6730,
      "\\rhoS": 6731,
      "\\rhol": 6732,
      "\\rholn": 6733,
      "\\rhoii": 6734,
      "\\rhoTr": 6735,
      "\\rhoji": 6736,
      "\\omegaF": 6737,
      "\\omegaV": 6738,
      "\\omegaX": 6739,
      "\\omegaY": 6740,
      "\\omegaZ": 6741,
      "\\omegag": 6742,
      "\\omegao": 6743,
      "\\omegadt": 6744,
      "\\omegact": 6745,
      "\\omegaac": 6746,
      "\\omegaun": 6747,
      "\\omegavx": 6748,
      "xij": 6749,
      "xik": 6750,
      "xis": 6751,
      "xix": 6752,
      "\\psiT": 6753,
      "\\psic": 6754,
      "\\psir": 6755,
      "\\psiv": 6756,
      "\\psiz": 6757,
      "\\psiei": 6758,
      "\\xiC": 6759,
      "\\xiq": 6760,
      "\\xis": 6761,
      "\\xix": 6762,
      "\\tU": 6763,
      "\\tu": 6764,
      "\\trace": 6765,
      "\\etaD": 6766,
      "\\etaF": 6767,
      "\\etaI": 6768,
      "\\etaX": 6769,
      "\\etac": 6770,
      "\\etap": 6771,
      "\\etaq": 6772,
      "\\etaAB": 6773,
      "\\etaCC": 6774,
      "\\etamum": 6775,
      "lage": 6776,
      "lanck": 6777,
      "language": 6778,
      "\\BE": 6779,
      "\\BW": 6780,
      "\\Bu": 6781,
      "\\Bv": 6782,
      "\\varphir": 6783,
      "\\epsilonM": 6784,
      "\\epsilonQ": 6785,
      "\\epsilonS": 6786,
      "\\epsilonw": 6787,
      "\\epsiloncd": 6788,
      "\\epsilonsin": 6789,
      "\\epsilonad": 6790,
      "\\epsilonji": 6791,
      "\\epsilonpi": 6792,
      "ront": 6793,
      "\\DC": 6794,
      "\\DE": 6795,
      "\\DL": 6796,
      "\\DX": 6797,
      "\\Da": 6798,
      "\\Db": 6799,
      "\\Dg": 6800,
      "\\Du": 6801,
      "\\Def": 6802,
      "\\Deltami": 6803,
      "\\mathbbb": 6804,
      "\\rangleH": 6805,
      "\\leqF": 6806,
      "\\leqU": 6807,
      "\\leqW": 6808,
      "\\leqrc": 6809,
      "\\leqsup": 6810,
      "\\leqlim": 6811,
      "\\leqinf": 6812,
      "\\wh": 6813,
      "\\ww": 6814,
      "\\well": 6815,
      "\\word": 6816,
      "\\walk": 6817,
      "imi": 6818,
      "imum": 6819,
      "\\nablaG": 6820,
      "\\nablaR": 6821,
      "\\nablaj": 6822,
      "\\nablak": 6823,
      "\\nablaei": 6824,
      "\\GammaB": 6825,
      "\\GammaH": 6826,
      "\\Gammab": 6827,
      "\\Gammah": 6828,
      "\\Gammaj": 6829,
      "\\Gammau": 6830,
      "\\GammaAd": 6831,
      "\\Operator": 6832,
      "\\Onta": 6833,
      "\\timess": 6834,
      "\\timesz": 6835,
      "\\OmegaM": 6836,
      "\\Omegab": 6837,
      "\\Omegaq": 6838,
      "\\Omegaei": 6839,
      "\\PhiI": 6840,
      "\\PhiR": 6841,
      "\\Phis": 6842,
      "\\Phiab": 6843,
      "\\veqno": 6844,
      "\\langlex": 6845,
      "\\dB": 6846,
      "\\dE": 6847,
      "\\dN": 6848,
      "\\dP": 6849,
      "\\dj": 6850,
      "\\dal": 6851,
      "\\dlta": 6852,
      "\\drd": 6853,
      "\\dkdk": 6854,
      "\\dimension": 6855,
      "\\LM": 6856,
      "\\Lf": 6857,
      "\\Lw": 6858,
      "\\chiK": 6859,
      "\\chiQ": 6860,
      "\\chiS": 6861,
      "\\chie": 6862,
      "\\chitr": 6863,
      "\\limit": 6864,
      "\\pmA": 6865,
      "\\pmB": 6866,
      "\\pmE": 6867,
      "\\pmI": 6868,
      "\\pmU": 6869,
      "\\pmk": 6870,
      "\\pmp": 6871,
      "\\pmt": 6872,
      "\\pmu": 6873,
      "\\pmw": 6874,
      "\\pmz": 6875,
      "\\pmip": 6876,
      "\\varepsil": 6877,
      "\\ks": 6878,
      "\\ky": 6879,
      "\\kz": 6880,
      "\\LambdaB": 6881,
      "\\LambdaQ": 6882,
      "\\Lambdaa": 6883,
      "\\Lambdap": 6884,
      "sts": 6885,
      "steri": 6886,
      "stem": 6887,
      "\\bfz": 6888,
      "idean": 6889,
      "\\kappaG": 6890,
      "\\kappaI": 6891,
      "\\kappaM": 6892,
      "\\kappaR": 6893,
      "\\kappaT": 6894,
      "\\kappaa": 6895,
      "\\kappag": 6896,
      "\\kappan": 6897,
      "\\kappau": 6898,
      "\\kappakB": 6899,
      "\\zu": 6900,
      "\\zw": 6901,
      "\\zetaF": 6902,
      "\\zetaf": 6903,
      "\\zetaz": 6904,
      "odbreak": 6905,
      "\\toarg": 6906,
      "\\prodA": 6907,
      "\\prodI": 6908,
      "\\prodK": 6909,
      "\\prodf": 6910,
      "\\prods": 6911,
      "\\produ": 6912,
      "\\prodie": 6913,
      "\\prodzi": 6914,
      "\\textfractions": 6915,
      "\\logR": 6916,
      "\\logZ": 6917,
      "\\logn": 6918,
      "\\Psiv": 6919,
      "\\coord": 6920,
      "\\corre": 6921,
      "ets": 6922,
      "\\geqE": 6923,
      "\\geqR": 6924,
      "\\geqb": 6925,
      "\\geqe": 6926,
      "\\geqf": 6927,
      "\\geqp": 6928,
      "\\geqcos": 6929,
      "\\geqexp": 6930,
      "\\sinC": 6931,
      "orphi": 6932,
      "\\hO": 6933,
      "\\hX": 6934,
      "\\hY": 6935,
      "\\hb": 6936,
      "\\high": 6937,
      "\\hxj": 6938,
      "\\half": 6939,
      "\\hxkx": 6940,
      "\\hxix": 6941,
      "\\ub": 6942,
      "\\uv": 6943,
      "\\uarr": 6944,
      "\\equivG": 6945,
      "\\cosA": 6946,
      "\\SB": 6947,
      "\\Sc": 6948,
      "\\Su": 6949,
      "\\Sup": 6950,
      "\\Sub": 6951,
      "\\SigmaG": 6952,
      "\\SigmaJ": 6953,
      "\\SigmaK": 6954,
      "\\SigmaR": 6955,
      "\\Sigmaa": 6956,
      "\\Sigmaim": 6957,
      "\\Sigmami": 6958,
      "\\Sigmadx": 6959,
      "\\SigmaNi": 6960,
      "\\open": 6961,
      "\\qt": 6962,
      "\\qy": 6963,
      "\\qcb": 6964,
      "\\qquadu": 6965,
      "\\qquadx": 6966,
      "dagger": 6967,
      "upp": 6968,
      "\\aa": 6969,
      "\\ang": 6970,
      "\\ass": 6971,
      "\\axis": 6972,
      "center": 6973,
      "omorphi": 6974,
      "\\fg": 6975,
      "\\fund": 6976,
      "\\full": 6977,
      "\\function": 6978,
      "\\finite": 6979,
      "\\fallingdotseq": 6980,
      "\\flage": 6981,
      "\\capd": 6982,
      "\\caph": 6983,
      "\\capi": 6984,
      "\\capy": 6985,
      "\\foo": 6986,
      "\\forod": 6987,
      "\\TP": 6988,
      "\\TX": 6989,
      "\\Tx": 6990,
      "\\TBV": 6991,
      "\\ThetaG": 6992,
      "\\ThetaJ": 6993,
      "\\stat": 6994,
      "\\starting": 6995,
      "\\simpl": 6996,
      "\\subsetA": 6997,
      "\\subsetI": 6998,
      "\\subsetL": 6999,
      "\\subsetP": 7000,
      "\\subsetS": 7001,
      "\\subsetY": 7002,
      "eratively": 7003,
      "erably": 7004,
      "eracy": 7005,
      "amental": 7006,
      "\\approxD": 7007,
      "\\approxa": 7008,
      "\\approxc": 7009,
      "\\approxd": 7010,
      "\\approxs": 7011,
      "\\approxln": 7012,
      "\\approxnln": 7013,
      "\\dire": 7014,
      "\\disc": 7015,
      "\\iB": 7016,
      "\\iI": 7017,
      "\\iot": 7018,
      "\\neqS": 7019,
      "\\neqT": 7020,
      "\\neqp": 7021,
      "\\neqs": 7022,
      "\\neqt": 7023,
      "\\neqx": 7024,
      "\\neqkd": 7025,
      "\\cupH": 7026,
      "\\cupR": 7027,
      "\\cupW": 7028,
      "\\cupg": 7029,
      "\\cupdot": 7030,
      "\\divc": 7031,
      "\\perms": 7032,
      "rio": 7033,
      "brac": 7034,
      "\\RC": 7035,
      "\\RS": 7036,
      "\\Rho": 7037,
      "nted": 7038,
      "ntequation": 7039,
      "stance": 7040,
      "\\setminusI": 7041,
      "\\iotaX": 7042,
      "\\textbullet": 7043,
      "\\infdiv": 7044,
      "\\RightarrowH": 7045,
      "\\Rightarrowa": 7046,
      "\\Rightarrowd": 7047,
      "\\Rightarrowp": 7048,
      "\\Rightarroww": 7049,
      "anada": 7050,
      "\\notinE": 7051,
      "\\notinI": 7052,
      "\\notinN": 7053,
      "\\notinV": 7054,
      "seth": 7055,
      "seque": 7056,
      "\\XG": 7057,
      "\\XX": 7058,
      "\\prode": 7059,
      "\\provide": 7060,
      "\\llbracket": 7061,
      "\\xa": 7062,
      "\\xl": 7063,
      "\\xm": 7064,
      "\\xdF": 7065,
      "\\Reals": 7066,
      "\\UQ": 7067,
      "\\UU": 7068,
      "\\bottle": 7069,
      "\\sffamily": 7070,
      "\\js": 7071,
      "\\jx": 7072,
      "\\jy": 7073,
      "\\IIA": 7074,
      "\\Isome": 7075,
      "veleft": 7076,
      "\\leftrightarrowG": 7077,
      "ipi": 7078,
      "skean": 7079,
      "skcenter": 7080,
      "\\LeftrightarrowB": 7081,
      "\\LeftrightarrowH": 7082,
      "\\Leftrightarrowy": 7083,
      "\\Leftrightarrowcosh": 7084,
      "\\arccosh": 7085,
      "\\iteratively": 7086,
      "sizebox": 7087,
      "\\leftarrowtail": 7088,
      "ings": 7089,
      "onv": 7090,
      "onal": 7091,
      "onant": 7092,
      "\\argument": 7093,
      "\\AF": 7094,
      "\\AG": 7095,
      "\\AH": 7096,
      "\\Af": 7097,
      "\\eqno": 7098,
      "\\modulo": 7099,
      "\\there": 7100,
      "\\matter": 7101,
      "\\none": 7102,
      "\\nonres": 7103,
      "\\nondecreasing": 7104,
      "andC": 7105,
      "andi": 7106,
      "coth": 7107,
      "cost": 7108,
      "plic": 7109,
      "utely": 7110,
      "\\yF": 7111,
      "\\yH": 7112,
      "\\yd": 7113,
      "\\yx": 7114,
      "\\yxy": 7115,
      "\\yvy": 7116,
      "scu": 7117,
      "\\quadxR": 7118,
      "\\intdD": 7119,
      "\\intdV": 7120,
      "\\intdg": 7121,
      "\\HD": 7122,
      "\\HH": 7123,
      "\\HM": 7124,
      "\\HQ": 7125,
      "\\Het": 7126,
      "\\CA": 7127,
      "\\Cr": 7128,
      "\\Cau": 7129,
      "\\Coro": 7130,
      "\\Canada": 7131,
      "such": 7132,
      "\\FF": 7133,
      "\\Fano": 7134,
      "\\Forall": 7135,
      "\\FOR": 7136,
      "try": 7137,
      "\\resizebox": 7138,
      "\\quadAX": 7139,
      "\\quadAv": 7140,
      "\\quadAre": 7141,
      "\\quadArg": 7142,
      "\\EC": 7143,
      "\\EF": 7144,
      "\\EL": 7145,
      "\\EX": 7146,
      "\\Es": 7147,
      "\\Eucl": 7148,
      "\\JN": 7149,
      "\\NI": 7150,
      "\\NN": 7151,
      "\\Nf": 7152,
      "\\Ng": 7153,
      "\\Nr": 7154,
      "\\MM": 7155,
      "\\MS": 7156,
      "\\MNP": 7157,
      "\\MTD": 7158,
      "\\Mink": 7159,
      "\\separa": 7160,
      "\\sequence": 7161,
      "ature": 7162,
      "\\sector": 7163,
      "\\medmuskip": 7164,
      "\\KE": 7165,
      "\\KBS": 7166,
      "\\sumic": 7167,
      "\\sumix": 7168,
      "\\copies": 7169,
      "\\point": 7170,
      "\\partialxd": 7171,
      "\\protecte": 7172,
      "\\protectm": 7173,
      "\\quadSE": 7174,
      "\\quadSc": 7175,
      "\\quadSq": 7176,
      "\\quadBS": 7177,
      "\\quadBV": 7178,
      "\\quadBase": 7179,
      "chy": 7180,
      "\\quadsB": 7181,
      "\\Zq": 7182,
      "\\Zuck": 7183,
      "\\dtdx": 7184,
      "\\homolog": 7185,
      "\\quadPB": 7186,
      "\\quadPR": 7187,
      "\\quadPx": 7188,
      "ken": 7189,
      "\\quaddF": 7190,
      "\\quaddd": 7191,
      "\\quaddp": 7192,
      "\\quaddt": 7193,
      "\\quaddw": 7194,
      "\\quaddy": 7195,
      "\\quaddln": 7196,
      "\\quadfore": 7197,
      "\\quadCG": 7198,
      "\\quadCL": 7199,
      "\\quadCN": 7200,
      "\\quadCO": 7201,
      "\\quadCx": 7202,
      "\\labeled": 7203,
      "\\quadRx": 7204,
      "\\quadRic": 7205,
      "\\quadMC": 7206,
      "\\quadFP": 7207,
      "\\quadFR": 7208,
      "\\quadFRS": 7209,
      "\\quadpV": 7210,
      "\\piii": 7211,
      "\\piiq": 7212,
      "\\piis": 7213,
      "\\piix": 7214,
      "\\piiz": 7215,
      "\\sumnF": 7216,
      "\\sumjd": 7217,
      "\\sumjn": 7218,
      "\\sumjwj": 7219,
      "\\quadXZ": 7220,
      "\\quadnl": 7221,
      "\\quadEB": 7222,
      "\\quadEG": 7223,
      "\\quadEq": 7224,
      "\\slots": 7225,
      "\\sumkj": 7226,
      "\\quadcore": 7227,
      "nen": 7228,
      "\\quadDA": 7229,
      "\\quadDF": 7230,
      "\\quadDR": 7231,
      "\\quadDAB": 7232,
      "\\quadTop": 7233,
      "\\struct": 7234,
      "\\quadrF": 7235,
      "\\quadrx": 7236,
      "\\multiplic": 7237,
      "\\quadmg": 7238,
      "\\quadmod": 7239,
      "\\shoveleft": 7240,
      "\\shortminus": 7241,
      "\\shortvdots": 7242,
      "\\quadka": 7243,
      "\\quadII": 7244,
      "\\quadIJ": 7245,
      "\\quadId": 7246,
      "\\Deltaxj": 7247,
      "\\quadLu": 7248,
      "\\quaduv": 7249,
      "ctions": 7250,
      "\\Dirac": 7251,
      "\\Distance": 7252,
      "\\dydx": 7253,
      "\\intDT": 7254,
      "\\intDd": 7255,
      "\\intDg": 7256,
      "\\inSL": 7257,
      "\\inSO": 7258,
      "\\inSp": 7259,
      "\\centerline": 7260,
      "\\partialzB": 7261,
      "\\partialzk": 7262,
      "\\partialzz": 7263,
      "\\thickmuskip": 7264,
      "\\partialyj": 7265,
      "\\partialyk": 7266,
      "\\inAQ": 7267,
      "\\inAa": 7268,
      "\\inAx": 7269,
      "\\nablauk": 7270,
      "\\nablaudx": 7271,
      "\\nablaudt": 7272,
      "\\quadQP": 7273,
      "\\quadQS": 7274,
      "\\leqCh": 7275,
      "\\leqCt": 7276,
      "\\prodia": 7277,
      "dtdx": 7278,
      "\\omegatd": 7279,
      "\\omegatei": 7280,
      "quals": 7281,
      "\\inRm": 7282,
      "\\textbackslashleft": 7283,
      "\\inIN": 7284,
      "\\inIn": 7285,
      "\\inXp": 7286,
      "\\quadWL": 7287,
      "expi": 7288,
      "expexp": 7289,
      "\\quadqr": 7290,
      "\\intdxG": 7291,
      "superscripte": 7292,
      "\\partialuk": 7293,
      "\\inGF": 7294,
      "\\inVi": 7295,
      "\\inHp": 7296,
      "\\dashleftarrow": 7297,
      "\\inBC": 7298,
      "logp": 7299,
      "\\quadOA": 7300,
      "\\quadOD": 7301,
      "\\thetadz": 7302,
      "\\inEnd": 7303,
      "\\partialik": 7304,
      "\\partialix": 7305,
      "\\piRC": 7306,
      "\\piRT": 7307,
      "\\summb": 7308,
      "\\summn": 7309,
      "\\pinj": 7310,
      "\\pinx": 7311,
      "\\sqrtnp": 7312,
      "\\sqrtnlog": 7313,
      "\\partialru": 7314,
      "\\alphairi": 7315,
      "\\isomorphi": 7316,
      "\\inftydh": 7317,
      "\\inftydu": 7318,
      "\\partialXI": 7319,
      "\\partialXn": 7320,
      "\\inUN": 7321,
      "dydx": 7322,
      "\\TrT": 7323,
      "\\diagonal": 7324,
      "\\solu": 7325,
      "\\sumab": 7326,
      "\\sumam": 7327,
      "\\lambdaia": 7328,
      "\\lambdais": 7329,
      "\\trues": 7330,
      "\\DeltaABD": 7331,
      "\\inMn": 7332,
      "\\partialAb": 7333,
      "\\partialAdS": 7334,
      "\\partialac": 7335,
      "\\lambdanJ": 7336,
      "\\lambdana": 7337,
      "\\timesSL": 7338,
      "\\theequation": 7339,
      "\\thepare": 7340,
      "\\partialvp": 7341,
      "olving": 7342,
      "olutely": 7343,
      "\\muxf": 7344,
      "\\inFp": 7345,
      "\\partialgg": 7346,
      "\\lambdafy": 7347,
      "\\pmik": 7348,
      "\\absolutely": 7349,
      "\\intMR": 7350,
      "\\intMf": 7351,
      "\\intMdx": 7352,
      "\\inKer": 7353,
      "\\DeltaADC": 7354,
      "\\sumpR": 7355,
      "\\lambdaji": 7356,
      "\\lambdajn": 7357,
      "\\intCF": 7358,
      "\\intCI": 7359,
      "\\intCi": 7360,
      "\\intCs": 7361,
      "\\intxt": 7362,
      "\\intRdf": 7363,
      "\\meas": 7364,
      "\\pimc": 7365,
      "\\pimkT": 7366,
      "\\conj": 7367,
      "\\conseque": 7368,
      "\\alphakn": 7369,
      "\\pikx": 7370,
      "\\intXL": 7371,
      "\\muFc": 7372,
      "\\intBd": 7373,
      "\\partialbH": 7374,
      "\\partialbt": 7375,
      "\\sigmaiy": 7376,
      "\\cdo": 7377,
      "\\deltaikd": 7378,
      "\\rhodV": 7379,
      "\\textgsb": 7380,
      "\\unique": 7381,
      "\\Deltapu": 7382,
      "\\lambdamin": 7383,
      "\\sqrthhab": 7384,
      "\\alphadz": 7385,
      "\\alphafg": 7386,
      "\\dxdv": 7387,
      "\\muPlanck": 7388,
      "\\muuu": 7389,
      "\\taunr": 7390,
      "\\inWP": 7391,
      "\\alphaea": 7392,
      "\\mueb": 7393,
      "\\partialUs": 7394,
      "\\sigmadB": 7395,
      "\\quadsinh": 7396,
      "\\term": 7397,
      "\\textasteri": 7398,
      "\\involving": 7399,
      "\\deltanm": 7400,
      "\\inftyfn": 7401,
      "\\quadlnk": 7402,
      "diag": 7403,
      "\\alphaDtZ": 7404,
      "\\partialDd": 7405,
      "\\partialwx": 7406,
      "\\piece": 7407,
      "\\sqrtNL": 7408,
      "\\nablaxu": 7409,
      "\\deltakj": 7410,
      "\\gammakB": 7411,
      "\\gammakf": 7412,
      "AiAB": 7413,
      "\\partialkg": 7414,
      "\\partialkx": 7415,
      "\\sigmaXI": 7416,
      "\\betaEk": 7417,
      "\\omegaLI": 7418,
      "\\toPP": 7419,
      "ijkl": 7420,
      "\\sqrtar": 7421,
      "RSTUV": 7422,
      "\\intVC": 7423,
      "\\sqrtkr": 7424,
      "\\betamc": 7425,
      "\\deltaIP": 7426,
      "\\Omegauu": 7427,
      "\\constants": 7428,
      "\\everymath": 7429,
      "\\mufx": 7430,
      "\\intGf": 7431,
      "\\toMc": 7432,
      "\\intLd": 7433,
      "\\pijj": 7434,
      "\\rhoAM": 7435,
      "\\Deltakk": 7436,
      "\\toCat": 7437,
      "dWs": 7438,
      "\\muLb": 7439,
      "\\LambdakV": 7440,
      "\\intMdGa": 7441,
      "\\sqrtrg": 7442,
      "\\nablaiP": 7443,
      "\\nablaiuj": 7444,
      "\\toGL": 7445,
      "\\toGal": 7446,
      "\\alphaQA": 7447,
      "\\muUV": 7448,
      "\\intPtdt": 7449,
      "\\deltaHi": 7450,
      "\\gammatd": 7451,
      "\\epsilonfg": 7452,
      "\\DeltaOB": 7453,
      "\\DeltaOCA": 7454,
      "\\support": 7455,
      "\\quadACH": 7456,
      "\\gammaijgij": 7457,
      "\\fixing": 7458,
      "\\transformations": 7459,
      "\\gammaAF": 7460,
      "\\gammadk": 7461,
      "\\thetaWM": 7462,
      "\\thetaWcos": 7463,
      "\\quadarctan": 7464,
      "\\quadarccosx": 7465,
      "\\nablam": 7466,
      "\\last": 7467,
      "\\lamdba": 7468,
      "\\piLP": 7469,
      "\\tauIQI": 7470,
      "OPT": 7471,
      "\\least": 7472,
      "\\signature": 7473,
      "\\quadcoth": 7474,
      "\\Haag": 7475,
      "\\Haven": 7476,
      "\\alphaln": 7477,
      "\\muWiQij": 7478,
      "\\intIf": 7479,
      "\\intrh": 7480,
      "\\nuyg": 7481,
      "\\leqPr": 7482,
      "\\quadSpin": 7483,
      "\\phr": 7484,
      "\\volcano": 7485,
      "\\intzy": 7486,
      "\\sqrtLL": 7487,
      "\\quaddetA": 7488,
      "\\quaddetT": 7489,
      "\\toDb": 7490,
      "\\Psiqp": 7491,
      "\\Toront": 7492,
      "\\respect": 7493,
      "\\dath": 7494,
      "\\system": 7495,
      "argmin": 7496,
      "\\intcx": 7497,
      "\\inftyakxk": 7498,
      "\\XYh": 7499,
      "\\jkm": 7500,
      "\\sumijCi": 7501,
      "\\derivatives": 7502,
      "\\rainbo": 7503,
      "\\psr": 7504,
      "\\shell": 7505,
      "\\sigmaHF": 7506,
      "\\inftySn": 7507,
      "\\kappaAG": 7508,
      "\\fontsize": 7509,
      "\\charge": 7510,
      "\\extracolsep": 7511,
      "\\edges": 7512,
      "\\sumini": 7513,
      "\\etaijdx": 7514,
      "\\Braket": 7515,
      "\\Bracket": 7516,
      "\\BRST": 7517,
      "\\epsilonmnp": 7518,
      "\\Lian": 7519,
      "\\quadInv": 7520,
      "\\quadhuv": 7521,
      "\\Omegamn": 7522,
      "\\respectively": 7523,
      "\\rrbracket": 7524,
      "\\valid": 7525,
      "\\values": 7526,
      "\\phiBhi": 7527,
      "\\thetaHA": 7528,
      "\\etaslow": 7529,
      "\\OmegaNdf": 7530,
      "\\kilo": 7531,
      "\\divisor": 7532,
      "\\divisible": 7533,
      "\\thinmuskip": 7534,
      "\\dtdm": 7535,
      "\\partialiAj": 7536,
      "\\sumipilog": 7537,
      "\\downharpoonleft": 7538,
      "\\downharpoonright": 7539,
      "\\permutations": 7540,
      "\\mapst": 7541,
      "\\partition": 7542,
      "llary": 7543,
      "\\which": 7544,
      "\\LdG": 7545,
      "\\LambdaCx": 7546,
      "\\toward": 7547,
      "\\subsetCS": 7548,
      "otherwise": 7549,
      "\\quadPhysi": 7550,
      "\\quadIntC": 7551,
      "superscripti": 7552,
      "olidus": 7553,
      "\\quadarcsinx": 7554,
      "\\wedgedx": 7555,
      "\\has": 7556,
      "\\goodbreak": 7557,
      "\\agh": 7558,
      "\\Universi": 7559,
      "\\duality": 7560,
      "\\inPSH": 7561,
      "\\deltaBRSS": 7562,
      "\\quadWXYZRSTUV": 7563,
      "\\radius": 7564,
      "boundaries": 7565,
      "MULA": 7566,
      "llate": 7567,
      "owskean": 7568,
      "\\plane": 7569,
      "\\packets": 7570,
      "\\pair": 7571,
      "matter": 7572,
      "\\shaped": 7573,
      "\\serving": 7574,
      "\\shift": 7575,
      "\\sbrackets": 7576,
      "\\oriented": 7577,
      "\\omicron": 7578,
      "\\cubic": 7579,
      "\\markings": 7580,
      "\\mathsterling": 7581,
      "\\epislon": 7582,
      "\\surely": 7583,
      "\\ngeq": 7584,
      "\\summations": 7585,
      "\\intsksk": 7586,
      "\\ghosts": 7587,
      "\\betalnZ": 7588,
      "\\preferably": 7589,
      "\\degeneracy": 7590,
      "\\Definition": 7591,
      "\\Deltamix": 7592,
      "\\GammaAdj": 7593,
      "\\Ontario": 7594,
      "\\dimensional": 7595,
      "\\chitriv": 7596,
      "\\textfractionsolidus": 7597,
      "\\corrections": 7598,
      "\\higher": 7599,
      "\\hxjx": 7600,
      "\\Supset": 7601,
      "\\assumed": 7602,
      "\\fundamental": 7603,
      "\\flagellate": 7604,
      "\\forodd": 7605,
      "\\simply": 7606,
      "\\direct": 7607,
      "\\infdivx": 7608,
      "\\providecommand": 7609,
      "\\Isometry": 7610,
      "skcentered": 7611,
      "\\nonresonant": 7612,
      "\\Cauchy": 7613,
      "\\Corollary": 7614,
      "\\FORMULA": 7615,
      "\\Euclidean": 7616,
      "\\MNPQ": 7617,
      "\\Minkowskean": 7618,
      "\\separating": 7619,
      "\\sectors": 7620,
      "\\KBSM": 7621,
      "\\Zuckerman": 7622,
      "\\homology": 7623,
      "\\structure": 7624,
      "\\multiplication": 7625,
      "\\shortvdotswithin": 7626,
      "\\isomorphism": 7627,
      "\\solutions": 7628,
      "\\truesum": 7629,
      "\\theparentequation": 7630,
      "\\consequently": 7631,
      "\\textasteriskcentered": 7632,
      "\\supported": 7633,
      "\\Toronto": 7634,
      "\\rainbow": 7635,
      "\\quadPhysics": 7636,
      "\\University": 7637,
      "AX": 7638,
      "Aj": 7639,
      "Al": 7640,
      "Angle": 7641,
      "Asin": 7642,
      "AMM": 7643,
      "BA": 7644,
      "BB": 7645,
      "BN": 7646,
      "BP": 7647,
      "Bc": 7648,
      "Bm": 7649,
      "Bcos": 7650,
      "CF": 7651,
      "Cr": 7652,
      "Code": 7653,
      "CdW": 7654,
      "CkT": 7655,
      "DH": 7656,
      "DI": 7657,
      "DP": 7658,
      "DQ": 7659,
      "DS": 7660,
      "Db": 7661,
      "Dt": 7662,
      "Dai": 7663,
      "DDB": 7664,
      "EE": 7665,
      "EF": 7666,
      "Ek": 7667,
      "Er": 7668,
      "FE": 7669,
      "FF": 7670,
      "Fj": 7671,
      "Fq": 7672,
      "Ft": 7673,
      "Fab": 7674,
      "Fmn": 7675,
      "GA": 7676,
      "GG": 7677,
      "Gen": 7678,
      "GAa": 7679,
      "HH": 7680,
      "HK": 7681,
      "Hk": 7682,
      "Hs": 7683,
      "Hz": 7684,
      "IS": 7685,
      "If": 7686,
      "Ij": 7687,
      "It": 7688,
      "Iid": 7689,
      "Iij": 7690,
      "Idx": 7691,
      "JJ": 7692,
      "JM": 7693,
      "JT": 7694,
      "Jk": 7695,
      "KL": 7696,
      "KR": 7697,
      "Kg": 7698,
      "Kn": 7699,
      "Kv": 7700,
      "LU": 7701,
      "LV": 7702,
      "Lu": 7703,
      "MX": 7704,
      "Mn": 7705,
      "Mp": 7706,
      "My": 7707,
      "NH": 7708,
      "NN": 7709,
      "NZ": 7710,
      "Nt": 7711,
      "Nx": 7712,
      "NOT": 7713,
      "OC": 7714,
      "Oket": 7715,
      "PB": 7716,
      "PF": 7717,
      "PI": 7718,
      "PM": 7719,
      "PT": 7720,
      "PY": 7721,
      "Pf": 7722,
      "Pr": 7723,
      "Pre": 7724,
      "PAC": 7725,
      "PdV": 7726,
      "QN": 7727,
      "QP": 7728,
      "RD": 7729,
      "RU": 7730,
      "Ra": 7731,
      "Rl": 7732,
      "Rip": 7733,
      "Rdx": 7734,
      "SD": 7735,
      "SN": 7736,
      "Sa": 7737,
      "Sb": 7738,
      "Sx": 7739,
      "Sij": 7740,
      "SGk": 7741,
      "TC": 7742,
      "TE": 7743,
      "TM": 7744,
      "TR": 7745,
      "TX": 7746,
      "Tk": 7747,
      "Tij": 7748,
      "TAC": 7749,
      "UT": 7750,
      "Uf": 7751,
      "Uk": 7752,
      "USS": 7753,
      "UAv": 7754,
      "VC": 7755,
      "VS": 7756,
      "VV": 7757,
      "VW": 7758,
      "Va": 7759,
      "Vj": 7760,
      "Vm": 7761,
      "Var": 7762,
      "Vinf": 7763,
      "WF": 7764,
      "WI": 7765,
      "Wij": 7766,
      "XS": 7767,
      "YM": 7768,
      "ZF": 7769,
      "ZM": 7770,
      "\\2": 7771,
      "\\4": 7772,
      "\\†": 7773,
      "\\ℙ": 7774,
      "aX": 7775,
      "aAC": 7776,
      "aof": 7777,
      "bl": 7778,
      "bal": 7779,
      "bse": 7780,
      "bai": 7781,
      "bdx": 7782,
      "base": 7783,
      "block": 7784,
      "cg": 7785,
      "cz": 7786,
      "core": 7787,
      "csin": 7788,
      "dQ": 7789,
      "dT": 7790,
      "dsp": 7791,
      "dtt": 7792,
      "eN": 7793,
      "ew": 7794,
      "ele": 7795,
      "eAi": 7796,
      "equals": 7797,
      "fr": 7798,
      "fin": 7799,
      "face": 7800,
      "gG": 7801,
      "ga": 7802,
      "gd": 7803,
      "gs": 7804,
      "gie": 7805,
      "gas": 7806,
      "hg": 7807,
      "hv": 7808,
      "hz": 7809,
      "iC": 7810,
      "ib": 7811,
      "ist": 7812,
      "iff": 7813,
      "izi": 7814,
      "iFi": 7815,
      "jd": 7816,
      "jl": 7817,
      "jRj": 7818,
      "jNX": 7819,
      "ks": 7820,
      "kexp": 7821,
      "lP": 7822,
      "lk": 7823,
      "lx": 7824,
      "lmn": 7825,
      "linv": 7826,
      "lAn": 7827,
      "mL": 7828,
      "mf": 7829,
      "msuperscript": 7830,
      "myn": 7831,
      "nD": 7832,
      "nX": 7833,
      "nb": 7834,
      "nw": 7835,
      "nown": 7836,
      "nij": 7837,
      "nment": 7838,
      "nmax": 7839,
      "oB": 7840,
      "oh": 7841,
      "ok": 7842,
      "osi": 7843,
      "oint": 7844,
      "ose": 7845,
      "ount": 7846,
      "pd": 7847,
      "pr": 7848,
      "pEn": 7849,
      "product": 7850,
      "qc": 7851,
      "qn": 7852,
      "qid": 7853,
      "rx": 7854,
      "rra": 7855,
      "red": 7856,
      "rsin": 7857,
      "rling": 7858,
      "sB": 7859,
      "sD": 7860,
      "sR": 7861,
      "sigma": 7862,
      "sls": 7863,
      "sdB": 7864,
      "solid": 7865,
      "tn": 7866,
      "tjk": 7867,
      "tIij": 7868,
      "ul": 7869,
      "uster": 7870,
      "va": 7871,
      "vn": 7872,
      "vu": 7873,
      "vji": 7874,
      "vity": 7875,
      "ww": 7876,
      "wz": 7877,
      "wdq": 7878,
      "waa": 7879,
      "xf": 7880,
      "yp": 7881,
      "yz": 7882,
      "yei": 7883,
      "yac": 7884,
      "zy": 7885,
      "\\lup": 7886,
      "\\lcVert": 7887,
      "\\lamba": 7888,
      "iga": 7889,
      "igm": 7890,
      "\\rangl": 7891,
      "\\rcVert": 7892,
      "ftf": 7893,
      "\\lepsilon": 7894,
      "\\rightarro": 7895,
      "rand": 7896,
      "rapp": 7897,
      "fracdydx": 7898,
      "\\fractheta": 7899,
      "\\para": 7900,
      "\\piny": 7901,
      "\\phig": 7902,
      "\\pFq": 7903,
      "taf": 7904,
      "inN": 7905,
      "inU": 7906,
      "inX": 7907,
      "ino": 7908,
      "ins": 7909,
      "mage": 7910,
      "mascu": 7911,
      "alg": 7912,
      "\\sm": 7913,
      "\\sti": 7914,
      "\\sslash": 7915,
      "\\slim": 7916,
      "\\sigm": 7917,
      "\\bs": 7918,
      "\\bdot": 7919,
      "\\bara": 7920,
      "tic": 7921,
      "tif": 7922,
      "tiii": 7923,
      "theca": 7924,
      "\\ind": 7925,
      "\\inp": 7926,
      "\\inr": 7927,
      "\\iny": 7928,
      "\\inab": 7929,
      "\\inint": 7930,
      "\\indy": 7931,
      "\\inbi": 7932,
      "\\insupp": 7933,
      "\\inargmin": 7934,
      "amda": 7935,
      "ample": 7936,
      "amount": 7937,
      "\\cG": 7938,
      "\\cN": 7939,
      "\\cS": 7940,
      "\\capp": 7941,
      "\\cech": 7942,
      "met": 7943,
      "ers": 7944,
      "erline": 7945,
      "hia": 7946,
      "\\mc": 7947,
      "\\msup": 7948,
      "\\mathm": 7949,
      "dei": 7950,
      "\\eR": 7951,
      "verrightarrow": 7952,
      "\\alphaid": 7953,
      "\\alphaint": 7954,
      "\\alphaip": 7955,
      "\\alphaze": 7956,
      "\\alphafor": 7957,
      "\\alphaei": 7958,
      "\\alphads": 7959,
      "\\alphacosh": 7960,
      "\\alphapi": 7961,
      "\\alphaCi": 7962,
      "\\alphaFa": 7963,
      "\\alphaidx": 7964,
      "\\overright": 7965,
      "sical": 7966,
      "\\muin": 7967,
      "\\mude": 7968,
      "\\mush": 7969,
      "\\muut": 7970,
      "\\muand": 7971,
      "\\muie": 7972,
      "\\muak": 7973,
      "\\mudt": 7974,
      "\\muXi": 7975,
      "\\muei": 7976,
      "\\mucl": 7977,
      "\\mumatter": 7978,
      "\\partialft": 7979,
      "\\partialan": 7980,
      "\\partiallim": 7981,
      "\\partialsq": 7982,
      "\\partialts": 7983,
      "\\partialij": 7984,
      "\\nL": 7985,
      "\\na": 7986,
      "\\nd": 7987,
      "\\np": 7988,
      "\\nor": 7989,
      "\\nota": 7990,
      "\\ngl": 7991,
      "\\sumM": 7992,
      "\\sumQ": 7993,
      "\\sumU": 7994,
      "\\sumti": 7995,
      "\\summe": 7996,
      "\\sumil": 7997,
      "\\sumsc": 7998,
      "\\sumdx": 7999,
      "\\sumwi": 8000,
      "\\sumfi": 8001,
      "\\sumcA": 8002,
      "\\sumiei": 8003,
      "\\sumci": 8004,
      "\\sumTi": 8005,
      "\\sumboundaries": 8006,
      "\\cdotL": 8007,
      "\\cdotU": 8008,
      "\\cdotl": 8009,
      "\\cdotro": 8010,
      "\\cdotcos": 8011,
      "\\cdotexp": 8012,
      "\\lambdaab": 8013,
      "\\lambdatilde": 8014,
      "\\lambdacos": 8015,
      "\\lambdaij": 8016,
      "\\lambdadx": 8017,
      "\\lambdasuperscript": 8018,
      "\\lambdamax": 8019,
      "\\lambdabc": 8020,
      "\\lambdaijk": 8021,
      "\\lambdaba": 8022,
      "\\lambdaiei": 8023,
      "\\lambdaDx": 8024,
      "\\lambdaivi": 8025,
      "\\intn": 8026,
      "\\intxi": 8027,
      "\\inttit": 8028,
      "\\intbb": 8029,
      "\\intII": 8030,
      "\\intqi": 8031,
      "\\intNP": 8032,
      "\\piO": 8033,
      "\\pime": 8034,
      "\\pirm": 8035,
      "\\piit": 8036,
      "\\piri": 8037,
      "\\pitr": 8038,
      "\\picos": 8039,
      "\\piad": 8040,
      "\\piexp": 8041,
      "\\pilog": 8042,
      "\\piTr": 8043,
      "\\pisubscript": 8044,
      "\\pirad": 8045,
      "\\piabc": 8046,
      "\\pirdr": 8047,
      "\\sqrtH": 8048,
      "\\sqrtZ": 8049,
      "\\sqrtu": 8050,
      "\\sqrtng": 8051,
      "\\sqrtck": 8052,
      "\\sqrttan": 8053,
      "\\sqrtrd": 8054,
      "\\sqrtcosh": 8055,
      "\\sqrtKR": 8056,
      "\\betaO": 8057,
      "\\betal": 8058,
      "\\betalo": 8059,
      "\\betacd": 8060,
      "\\betats": 8061,
      "\\betady": 8062,
      "\\betaAi": 8063,
      "\\betasinh": 8064,
      "\\betaIA": 8065,
      "\\betaout": 8066,
      "local": 8067,
      "loss": 8068,
      "\\delde": 8069,
      "\\nuN": 8070,
      "\\nuQ": 8071,
      "\\nuW": 8072,
      "\\nur": 8073,
      "\\nuw": 8074,
      "\\nuft": 8075,
      "\\nume": 8076,
      "\\nutilde": 8077,
      "\\nuexp": 8078,
      "\\nuln": 8079,
      "\\nudy": 8080,
      "\\nudS": 8081,
      "\\nuzu": 8082,
      "\\nuBi": 8083,
      "\\nuUU": 8084,
      "\\phiH": 8085,
      "\\phip": 8086,
      "\\phiin": 8087,
      "\\phiti": 8088,
      "\\phiab": 8089,
      "\\phiij": 8090,
      "\\phimn": 8091,
      "\\phids": 8092,
      "\\phiac": 8093,
      "\\phibc": 8094,
      "\\phiijk": 8095,
      "\\sigmab": 8096,
      "\\sigmaq": 8097,
      "\\sigmadt": 8098,
      "\\sigmadd": 8099,
      "\\sigmalog": 8100,
      "\\sigmaTr": 8101,
      "\\sigmars": 8102,
      "\\sigmayx": 8103,
      "\\sigmacm": 8104,
      "\\sigmaidi": 8105,
      "\\deltaO": 8106,
      "\\deltah": 8107,
      "\\deltale": 8108,
      "\\deltaan": 8109,
      "\\deltail": 8110,
      "\\deltacd": 8111,
      "\\deltadx": 8112,
      "\\deltasubscript": 8113,
      "\\deltabc": 8114,
      "\\deltahk": 8115,
      "\\deltapq": 8116,
      "\\deltaTT": 8117,
      "\\deltaca": 8118,
      "\\gammaH": 8119,
      "\\gammaJ": 8120,
      "\\gammaL": 8121,
      "\\gammaR": 8122,
      "\\gammay": 8123,
      "\\gammamin": 8124,
      "\\gammaan": 8125,
      "\\gammaleft": 8126,
      "\\gammacd": 8127,
      "\\gammabb": 8128,
      "\\gammasin": 8129,
      "\\gammadx": 8130,
      "\\gammaXi": 8131,
      "\\gammady": 8132,
      "\\gammamn": 8133,
      "\\gammapi": 8134,
      "\\gammaba": 8135,
      "\\gammaphy": 8136,
      "\\thetaG": 8137,
      "\\thetaM": 8138,
      "\\thetaQ": 8139,
      "\\thetaV": 8140,
      "\\thetau": 8141,
      "\\thetaw": 8142,
      "\\thetama": 8143,
      "\\thetaeq": 8144,
      "\\thetalim": 8145,
      "\\thetaec": 8146,
      "\\thetasq": 8147,
      "\\thetadd": 8148,
      "\\thetalog": 8149,
      "\\thetacosh": 8150,
      "\\thetaos": 8151,
      "\\thetahk": 8152,
      "\\thetaTi": 8153,
      "\\thetaCC": 8154,
      "\\thetacost": 8155,
      "\\inftyC": 8156,
      "\\inftyL": 8157,
      "\\inftyQ": 8158,
      "\\inftyR": 8159,
      "\\inftyV": 8160,
      "\\inftyi": 8161,
      "\\inftysp": 8162,
      "\\inftyto": 8163,
      "\\inftyai": 8164,
      "\\inftyad": 8165,
      "\\inftyexp": 8166,
      "\\inftylog": 8167,
      "\\inftybk": 8168,
      "\\inftyEn": 8169,
      "\\inftyAk": 8170,
      "\\inftyaj": 8171,
      "\\inftyli": 8172,
      "\\inftyof": 8173,
      "\\inftysn": 8174,
      "\\inftysgn": 8175,
      "hole": 8176,
      "\\quadth": 8177,
      "\\quadim": 8178,
      "\\quadint": 8179,
      "\\quadsf": 8180,
      "\\quadto": 8181,
      "\\quadare": 8182,
      "\\quadsu": 8183,
      "\\quadnot": 8184,
      "\\quadtail": 8185,
      "\\quaddeg": 8186,
      "\\quadvev": 8187,
      "\\quadinv": 8188,
      "\\quadmer": 8189,
      "\\quadotherwise": 8190,
      "\\quadfracdydx": 8191
    },
    "merges": [
      [
        "\\",
        "l"
      ],
      [
        "i",
        "g"
      ],
      [
        "\\",
        "r"
      ],
      [
        "f",
        "t"
      ],
      [
        "\\l",
        "e"
      ],
      [
        "h",
        "t"
      ],
      [
        "ig",
        "ht"
      ],
      [
        "\\r",
        "ight"
      ],
      [
        "\\le",
        "ft"
      ],
      [
        "r",
        "a"
      ],
      [
        "f",
        "ra"
      ],
      [
        "fra",
        "c"
      ],
      [
        "\\",
        "frac"
      ],
      [
        "\\",
        "p"
      ],
      [
        "t",
        "a"
      ],
      [
        "i",
        "n"
      ],
      [
        "m",
        "a"
      ],
      [
        "a",
        "l"
      ],
      [
        "\\",
        "s"
      ],
      [
        "a",
        "r"
      ],
      [
        "\\",
        "b"
      ],
      [
        "t",
        "i"
      ],
      [
        "t",
        "h"
      ],
      [
        "\\",
        "in"
      ],
      [
        "a",
        "m"
      ],
      [
        "\\",
        "o"
      ],
      [
        "e",
        "ta"
      ],
      [
        "\\",
        "c"
      ],
      [
        "h",
        "a"
      ],
      [
        "m",
        "e"
      ],
      [
        "e",
        "r"
      ],
      [
        "\\",
        ","
      ],
      [
        "\\",
        "ma"
      ],
      [
        "o",
        "t"
      ],
      [
        "h",
        "i"
      ],
      [
        "d",
        "ot"
      ],
      [
        "\\",
        "m"
      ],
      [
        "\\ma",
        "th"
      ],
      [
        "d",
        "e"
      ],
      [
        "\\",
        "e"
      ],
      [
        "v",
        "er"
      ],
      [
        "\\",
        "al"
      ],
      [
        "p",
        "ha"
      ],
      [
        "\\al",
        "pha"
      ],
      [
        "\\o",
        "ver"
      ],
      [
        "s",
        "i"
      ],
      [
        "\\m",
        "u"
      ],
      [
        "d",
        "a"
      ],
      [
        "\\s",
        "u"
      ],
      [
        "\\p",
        "ar"
      ],
      [
        "ti",
        "al"
      ],
      [
        "\\par",
        "tial"
      ],
      [
        "am",
        "b"
      ],
      [
        "amb",
        "da"
      ],
      [
        "\\",
        "n"
      ],
      [
        "\\",
        "v"
      ],
      [
        "\\su",
        "m"
      ],
      [
        "l",
        "ta"
      ],
      [
        "\\c",
        "dot"
      ],
      [
        "\\l",
        "ambda"
      ],
      [
        "am",
        "ma"
      ],
      [
        "\\in",
        "t"
      ],
      [
        "\\",
        "g"
      ],
      [
        "\\p",
        "i"
      ],
      [
        "\\s",
        "q"
      ],
      [
        "r",
        "t"
      ],
      [
        "\\sq",
        "rt"
      ],
      [
        "\\",
        ";"
      ],
      [
        "\\v",
        "ar"
      ],
      [
        "q",
        "u"
      ],
      [
        "me",
        "g"
      ],
      [
        "meg",
        "a"
      ],
      [
        "\\",
        "ti"
      ],
      [
        "l",
        "e"
      ],
      [
        "ig",
        "ma"
      ],
      [
        "\\b",
        "eta"
      ],
      [
        "\\p",
        "r"
      ],
      [
        "th",
        "eta"
      ],
      [
        "l",
        "o"
      ],
      [
        "n",
        "g"
      ],
      [
        "\\",
        "de"
      ],
      [
        "n",
        "d"
      ],
      [
        "qu",
        "a"
      ],
      [
        "qua",
        "d"
      ],
      [
        "\\n",
        "u"
      ],
      [
        "\\p",
        "hi"
      ],
      [
        "ng",
        "le"
      ],
      [
        "\\s",
        "igma"
      ],
      [
        "a",
        "ngle"
      ],
      [
        "lo",
        "n"
      ],
      [
        "\\de",
        "lta"
      ],
      [
        "\\b",
        "ig"
      ],
      [
        "p",
        "si"
      ],
      [
        "psi",
        "lon"
      ],
      [
        "\\g",
        "amma"
      ],
      [
        "\\",
        "theta"
      ],
      [
        "\\math",
        "b"
      ],
      [
        "l",
        "de"
      ],
      [
        "\\",
        "{"
      ],
      [
        "\\in",
        "ft"
      ],
      [
        "\\inft",
        "y"
      ],
      [
        "h",
        "o"
      ],
      [
        "e",
        "g"
      ],
      [
        "\\",
        "quad"
      ],
      [
        "\\",
        "!"
      ],
      [
        "\\e",
        "nd"
      ],
      [
        "eg",
        "in"
      ],
      [
        "\\b",
        "egin"
      ],
      [
        "\\",
        "ta"
      ],
      [
        "ha",
        "t"
      ],
      [
        "\\",
        "}"
      ],
      [
        "i",
        "me"
      ],
      [
        "\\",
        "P"
      ],
      [
        "\\ta",
        "u"
      ],
      [
        "\\pr",
        "ime"
      ],
      [
        "\\r",
        "ho"
      ],
      [
        "\\o",
        "mega"
      ],
      [
        "\\ti",
        "lde"
      ],
      [
        "x",
        "i"
      ],
      [
        "\\p",
        "si"
      ],
      [
        "me",
        "s"
      ],
      [
        "\\",
        "hat"
      ],
      [
        "\\",
        "\\"
      ],
      [
        "\\",
        "xi"
      ],
      [
        "c",
        "al"
      ],
      [
        "\\math",
        "cal"
      ],
      [
        "\\",
        "|"
      ],
      [
        "\\b",
        "ar"
      ],
      [
        "\\",
        "t"
      ],
      [
        "\\",
        "eta"
      ],
      [
        "l",
        "a"
      ],
      [
        "\\",
        "B"
      ],
      [
        "\\var",
        "p"
      ],
      [
        "r",
        "m"
      ],
      [
        "in",
        "e"
      ],
      [
        "l",
        "ine"
      ],
      [
        "\\B",
        "ig"
      ],
      [
        "\\varp",
        "hi"
      ],
      [
        "\\e",
        "psilon"
      ],
      [
        "r",
        "o"
      ],
      [
        "\\math",
        "rm"
      ],
      [
        "\\",
        "D"
      ],
      [
        "e",
        "lta"
      ],
      [
        "\\D",
        "elta"
      ],
      [
        "\\mathb",
        "b"
      ],
      [
        "a",
        "p"
      ],
      [
        "l",
        "l"
      ],
      [
        "\\",
        "dot"
      ],
      [
        "\\r",
        "angle"
      ],
      [
        "\\le",
        "q"
      ],
      [
        "\\over",
        "line"
      ],
      [
        "\\",
        "w"
      ],
      [
        "\\c",
        "al"
      ],
      [
        "i",
        "m"
      ],
      [
        "a",
        "b"
      ],
      [
        "\\n",
        "ab"
      ],
      [
        "\\nab",
        "la"
      ],
      [
        "ro",
        "w"
      ],
      [
        "ar",
        "row"
      ],
      [
        "\\",
        "G"
      ],
      [
        "\\G",
        "amma"
      ],
      [
        "\\",
        "O"
      ],
      [
        "\\ti",
        "mes"
      ],
      [
        "\\O",
        "mega"
      ],
      [
        "\\P",
        "hi"
      ],
      [
        "\\e",
        "ll"
      ],
      [
        "ap",
        "p"
      ],
      [
        "\\v",
        "e"
      ],
      [
        "\\mathb",
        "f"
      ],
      [
        "\\l",
        "angle"
      ],
      [
        "\\",
        "d"
      ],
      [
        "\\g",
        "e"
      ],
      [
        "\\ve",
        "c"
      ],
      [
        "\\",
        "L"
      ],
      [
        "\\c",
        "hi"
      ],
      [
        "\\l",
        "im"
      ],
      [
        "\\p",
        "m"
      ],
      [
        "\\var",
        "e"
      ],
      [
        "\\vare",
        "psilon"
      ],
      [
        "\\",
        "k"
      ],
      [
        "\\L",
        "ambda"
      ],
      [
        "s",
        "t"
      ],
      [
        "\\b",
        "f"
      ],
      [
        "dot",
        "s"
      ],
      [
        "\\right",
        "arrow"
      ],
      [
        "app",
        "a"
      ],
      [
        "i",
        "de"
      ],
      [
        "\\w",
        "ide"
      ],
      [
        "\\k",
        "appa"
      ],
      [
        "\\l",
        "o"
      ],
      [
        "\\",
        "z"
      ],
      [
        "\\cdot",
        "s"
      ],
      [
        "\\z",
        "eta"
      ],
      [
        "o",
        "d"
      ],
      [
        "ti",
        "mes"
      ],
      [
        "b",
        "o"
      ],
      [
        "\\o",
        "times"
      ],
      [
        "e",
        "x"
      ],
      [
        "\\t",
        "ex"
      ],
      [
        "\\t",
        "o"
      ],
      [
        "\\pr",
        "od"
      ],
      [
        "\\big",
        "g"
      ],
      [
        "\\tex",
        "t"
      ],
      [
        "\\lo",
        "g"
      ],
      [
        "\\P",
        "si"
      ],
      [
        "\\l",
        "dots"
      ],
      [
        "i",
        "v"
      ],
      [
        "\\c",
        "o"
      ],
      [
        "\\r",
        "m"
      ],
      [
        "r",
        "c"
      ],
      [
        "i",
        "rc"
      ],
      [
        "\\c",
        "irc"
      ],
      [
        "e",
        "d"
      ],
      [
        "e",
        "t"
      ],
      [
        "\\ge",
        "q"
      ],
      [
        "bo",
        "x"
      ],
      [
        "\\s",
        "in"
      ],
      [
        "o",
        "r"
      ],
      [
        "\\",
        "h"
      ],
      [
        "\\dot",
        "s"
      ],
      [
        "ver",
        "t"
      ],
      [
        "\\",
        "u"
      ],
      [
        "g",
        "e"
      ],
      [
        "qu",
        "iv"
      ],
      [
        "\\e",
        "quiv"
      ],
      [
        "ed",
        "ge"
      ],
      [
        "\\co",
        "s"
      ],
      [
        "ti",
        "lde"
      ],
      [
        "\\wide",
        "tilde"
      ],
      [
        "\\",
        "S"
      ],
      [
        "\\w",
        "edge"
      ],
      [
        "s",
        "et"
      ],
      [
        "\\m",
        "box"
      ],
      [
        "\\S",
        "igma"
      ],
      [
        "i",
        "t"
      ],
      [
        "\\o",
        "p"
      ],
      [
        "\\",
        "q"
      ],
      [
        "\\",
        "vert"
      ],
      [
        "\\q",
        "quad"
      ],
      [
        "da",
        "g"
      ],
      [
        "\\",
        "dag"
      ],
      [
        "c",
        "k"
      ],
      [
        "u",
        "p"
      ],
      [
        "it",
        "s"
      ],
      [
        "nd",
        "er"
      ],
      [
        "\\u",
        "nder"
      ],
      [
        "\\var",
        "theta"
      ],
      [
        "\\",
        "a"
      ],
      [
        "u",
        "s"
      ],
      [
        "x",
        "p"
      ],
      [
        "c",
        "e"
      ],
      [
        "\\e",
        "xp"
      ],
      [
        "\\lim",
        "its"
      ],
      [
        "\\Big",
        "g"
      ],
      [
        "\\su",
        "b"
      ],
      [
        "e",
        "q"
      ],
      [
        "g",
        "er"
      ],
      [
        "\\dag",
        "ger"
      ],
      [
        "\\b",
        "o"
      ],
      [
        "s",
        "p"
      ],
      [
        "o",
        "m"
      ],
      [
        "\\l",
        "n"
      ],
      [
        "\\",
        "f"
      ],
      [
        "st",
        "y"
      ],
      [
        "sty",
        "le"
      ],
      [
        "\\wide",
        "hat"
      ],
      [
        "\\a",
        "st"
      ],
      [
        "\\c",
        "ap"
      ],
      [
        "ight",
        "arrow"
      ],
      [
        "\\big",
        "r"
      ],
      [
        "\\big",
        "l"
      ],
      [
        "\\P",
        "i"
      ],
      [
        "\\f",
        "o"
      ],
      [
        "\\under",
        "line"
      ],
      [
        "b",
        "ar"
      ],
      [
        "\\",
        "T"
      ],
      [
        "\\h",
        "bar"
      ],
      [
        "ra",
        "ll"
      ],
      [
        "\\fo",
        "rall"
      ],
      [
        "fra",
        "k"
      ],
      [
        "h",
        "eta"
      ],
      [
        "\\T",
        "heta"
      ],
      [
        "r",
        "ho"
      ],
      [
        "\\var",
        "rho"
      ],
      [
        "\\s",
        "ta"
      ],
      [
        "\\math",
        "frak"
      ],
      [
        "\\s",
        "im"
      ],
      [
        "\\Big",
        "r"
      ],
      [
        "l",
        "us"
      ],
      [
        "or",
        "n"
      ],
      [
        "\\sub",
        "set"
      ],
      [
        "i",
        "d"
      ],
      [
        "\\Big",
        "l"
      ],
      [
        "in",
        "om"
      ],
      [
        "e",
        "ra"
      ],
      [
        "era",
        "t"
      ],
      [
        "am",
        "e"
      ],
      [
        "\\op",
        "erat"
      ],
      [
        "orn",
        "ame"
      ],
      [
        "\\operat",
        "orname"
      ],
      [
        "app",
        "ro"
      ],
      [
        "appro",
        "x"
      ],
      [
        "\\",
        "approx"
      ],
      [
        "l",
        "d"
      ],
      [
        "\\m",
        "id"
      ],
      [
        "\\d",
        "i"
      ],
      [
        "\\b",
        "inom"
      ],
      [
        "\\bo",
        "ld"
      ],
      [
        "er",
        "t"
      ],
      [
        "\\d",
        "frac"
      ],
      [
        "\\",
        "i"
      ],
      [
        "la",
        "y"
      ],
      [
        "sp",
        "lay"
      ],
      [
        "\\di",
        "splay"
      ],
      [
        "V",
        "ert"
      ],
      [
        "\\display",
        "style"
      ],
      [
        "\\",
        ":"
      ],
      [
        "r",
        "ightarrow"
      ],
      [
        "\\bigg",
        "r"
      ],
      [
        "\\n",
        "eq"
      ],
      [
        "\\bigg",
        "l"
      ],
      [
        "lo",
        "or"
      ],
      [
        "f",
        "loor"
      ],
      [
        "\\su",
        "p"
      ],
      [
        "p",
        "t"
      ],
      [
        "y",
        "m"
      ],
      [
        "s",
        "ym"
      ],
      [
        "\\c",
        "up"
      ],
      [
        "\\",
        "Vert"
      ],
      [
        "bo",
        "l"
      ],
      [
        "sym",
        "bol"
      ],
      [
        "\\bold",
        "symbol"
      ],
      [
        "\\ma",
        "x"
      ],
      [
        "\\op",
        "lus"
      ],
      [
        "\\",
        "angle"
      ],
      [
        "\\d",
        "iv"
      ],
      [
        "\\sta",
        "r"
      ],
      [
        "\\p",
        "er"
      ],
      [
        "\\per",
        "p"
      ],
      [
        "r",
        "i"
      ],
      [
        "\\Bigg",
        "l"
      ],
      [
        "\\Bigg",
        "r"
      ],
      [
        "\\de",
        "t"
      ],
      [
        "\\m",
        "in"
      ],
      [
        "r",
        "e"
      ],
      [
        "\\n",
        "ot"
      ],
      [
        "b",
        "ra"
      ],
      [
        "\\t",
        "frac"
      ],
      [
        "\\",
        "R"
      ],
      [
        "\\big",
        "c"
      ],
      [
        "s",
        "la"
      ],
      [
        "n",
        "t"
      ],
      [
        "\\text",
        "rm"
      ],
      [
        "\\n",
        "e"
      ],
      [
        "o",
        "p"
      ],
      [
        "m",
        "in"
      ],
      [
        "min",
        "us"
      ],
      [
        "s",
        "ta"
      ],
      [
        "\\ve",
        "e"
      ],
      [
        "\\sub",
        "sta"
      ],
      [
        "\\substa",
        "ck"
      ],
      [
        "s",
        "h"
      ],
      [
        "st",
        "o"
      ],
      [
        "p",
        "sto"
      ],
      [
        "bra",
        "ce"
      ],
      [
        "\\subset",
        "eq"
      ],
      [
        "a",
        "ce"
      ],
      [
        "\\ma",
        "psto"
      ],
      [
        "\\s",
        "et"
      ],
      [
        "sp",
        "ace"
      ],
      [
        "\\set",
        "minus"
      ],
      [
        "\\r",
        "floor"
      ],
      [
        "re",
        "l"
      ],
      [
        "\\l",
        "floor"
      ],
      [
        "o",
        "ta"
      ],
      [
        "\\i",
        "ota"
      ],
      [
        "in",
        "t"
      ],
      [
        "\\bo",
        "x"
      ],
      [
        "ck",
        "rel"
      ],
      [
        "\\sta",
        "ckrel"
      ],
      [
        "l",
        "le"
      ],
      [
        "\\v",
        "dots"
      ],
      [
        "\\text",
        "b"
      ],
      [
        "\\bigc",
        "up"
      ],
      [
        "\\textb",
        "f"
      ],
      [
        "\\in",
        "f"
      ],
      [
        "ma",
        "th"
      ],
      [
        "\\sin",
        "h"
      ],
      [
        "\\R",
        "ightarrow"
      ],
      [
        "\\cos",
        "h"
      ],
      [
        "\\box",
        "ed"
      ],
      [
        "\\",
        "#"
      ],
      [
        "\\ta",
        "n"
      ],
      [
        "s",
        "f"
      ],
      [
        "\\m",
        "p"
      ],
      [
        "\\h",
        "space"
      ],
      [
        "ng",
        "rightarrow"
      ],
      [
        "\\math",
        "sf"
      ],
      [
        "a",
        "n"
      ],
      [
        "sla",
        "sh"
      ],
      [
        "\\not",
        "in"
      ],
      [
        "c",
        "ri"
      ],
      [
        "cri",
        "pt"
      ],
      [
        "an",
        "ce"
      ],
      [
        "ance",
        "l"
      ],
      [
        "\\d",
        "im"
      ],
      [
        "ho",
        "o"
      ],
      [
        "s",
        "e"
      ],
      [
        "\\s",
        "ime"
      ],
      [
        "\\sime",
        "q"
      ],
      [
        "\\c",
        "ancel"
      ],
      [
        "a",
        "ck"
      ],
      [
        "ack",
        "slash"
      ],
      [
        "\\",
        "X"
      ],
      [
        "\\b",
        "ackslash"
      ],
      [
        "nt",
        "om"
      ],
      [
        "\\e",
        "m"
      ],
      [
        "\\b",
        "u"
      ],
      [
        "ri",
        "angle"
      ],
      [
        "\\to",
        "p"
      ],
      [
        "\\X",
        "i"
      ],
      [
        "lle",
        "t"
      ],
      [
        "\\bu",
        "llet"
      ],
      [
        "\\lo",
        "ngrightarrow"
      ],
      [
        "\\c",
        "hoo"
      ],
      [
        "\\choo",
        "se"
      ],
      [
        "i",
        "l"
      ],
      [
        "\\o",
        "int"
      ],
      [
        "pt",
        "y"
      ],
      [
        "\\em",
        "pty"
      ],
      [
        "\\empty",
        "set"
      ],
      [
        "\\h",
        "box"
      ],
      [
        "ce",
        "il"
      ],
      [
        "\\t",
        "riangle"
      ],
      [
        "\\big",
        "op"
      ],
      [
        "\\bigop",
        "lus"
      ],
      [
        "\\co",
        "ng"
      ],
      [
        "h",
        "e"
      ],
      [
        "t",
        "o"
      ],
      [
        "\\cancel",
        "to"
      ],
      [
        "he",
        "ck"
      ],
      [
        "xi",
        "st"
      ],
      [
        "\\c",
        "heck"
      ],
      [
        "xist",
        "s"
      ],
      [
        "\\e",
        "xists"
      ],
      [
        "\\d",
        "dot"
      ],
      [
        "sla",
        "nt"
      ],
      [
        "\\p",
        "ha"
      ],
      [
        "\\pha",
        "ntom"
      ],
      [
        "\\text",
        "style"
      ],
      [
        "\\n",
        "eg"
      ],
      [
        "\\pr",
        "o"
      ],
      [
        "pt",
        "o"
      ],
      [
        "\\pro",
        "pto"
      ],
      [
        "\\under",
        "set"
      ],
      [
        "\\co",
        "lon"
      ],
      [
        "\\s",
        "cript"
      ],
      [
        "si",
        "m"
      ],
      [
        "\\l",
        "l"
      ],
      [
        "s",
        "s"
      ],
      [
        "\\le",
        "ss"
      ],
      [
        "\\",
        "x"
      ],
      [
        "h",
        "ar"
      ],
      [
        "\\less",
        "sim"
      ],
      [
        "har",
        "p"
      ],
      [
        "lo",
        "r"
      ],
      [
        "\\varp",
        "i"
      ],
      [
        "\\d",
        "dots"
      ],
      [
        "\\co",
        "lor"
      ],
      [
        "\\R",
        "e"
      ],
      [
        "\\de",
        "g"
      ],
      [
        "\\under",
        "brace"
      ],
      [
        "\\bigc",
        "ap"
      ],
      [
        "\\over",
        "set"
      ],
      [
        "\\",
        "ar"
      ],
      [
        "\\",
        "U"
      ],
      [
        "\\leq",
        "slant"
      ],
      [
        "ft",
        "rightarrow"
      ],
      [
        "s",
        "up"
      ],
      [
        "\\b",
        "ot"
      ],
      [
        "w",
        "n"
      ],
      [
        "o",
        "wn"
      ],
      [
        "\\lim",
        "sup"
      ],
      [
        "\\u",
        "psilon"
      ],
      [
        "\\U",
        "psilon"
      ],
      [
        "\\s",
        "f"
      ],
      [
        "\\",
        "j"
      ],
      [
        "own",
        "arrow"
      ],
      [
        "\\s",
        "harp"
      ],
      [
        "\\over",
        "rightarrow"
      ],
      [
        "\\bold",
        "math"
      ],
      [
        "\\i",
        "math"
      ],
      [
        "\\u",
        "p"
      ],
      [
        "\\l",
        "brace"
      ],
      [
        "\\",
        "I"
      ],
      [
        "\\d",
        "ownarrow"
      ],
      [
        "\\r",
        "vert"
      ],
      [
        "\\l",
        "vert"
      ],
      [
        "\\n",
        "o"
      ],
      [
        "\\math",
        "op"
      ],
      [
        "bra",
        "ck"
      ],
      [
        "v",
        "e"
      ],
      [
        "\\r",
        "ceil"
      ],
      [
        "\\l",
        "ceil"
      ],
      [
        "\\left",
        "rightarrow"
      ],
      [
        "\\i",
        "int"
      ],
      [
        "\\r",
        "brace"
      ],
      [
        "\\up",
        "arrow"
      ],
      [
        "\\I",
        "m"
      ],
      [
        "p",
        "h"
      ],
      [
        "\\",
        "%"
      ],
      [
        "\\text",
        "up"
      ],
      [
        "\\k",
        "er"
      ],
      [
        "da",
        "sh"
      ],
      [
        "ma",
        "l"
      ],
      [
        "i",
        "p"
      ],
      [
        "s",
        "cript"
      ],
      [
        "\\pm",
        "od"
      ],
[...]
